<unk>	0
<s>	0
</s>	0
<pad>	0
<0x00>	0
<0x01>	0
<0x02>	0
<0x03>	0
<0x04>	0
<0x05>	0
<0x06>	0
<0x07>	0
<0x08>	0
<0x09>	0
<0x0A>	0
<0x0B>	0
<0x0C>	0
<0x0D>	0
<0x0E>	0
<0x0F>	0
<0x10>	0
<0x11>	0
<0x12>	0
<0x13>	0
<0x14>	0
<0x15>	0
<0x16>	0
<0x17>	0
<0x18>	0
<0x19>	0
<0x1A>	0
<0x1B>	0
<0x1C>	0
<0x1D>	0
<0x1E>	0
<0x1F>	0
<0x20>	0
<0x21>	0
<0x22>	0
<0x23>	0
<0x24>	0
<0x25>	0
<0x26>	0
<0x27>	0
<0x28>	0
<0x29>	0
<0x2A>	0
<0x2B>	0
<0x2C>	0
<0x2D>	0
<0x2E>	0
<0x2F>	0
<0x30>	0
<0x31>	0
<0x32>	0
<0x33>	0
<0x34>	0
<0x35>	0
<0x36>	0
<0x37>	0
<0x38>	0
<0x39>	0
<0x3A>	0
<0x3B>	0
<0x3C>	0
<0x3D>	0
<0x3E>	0
<0x3F>	0
<0x40>	0
<0x41>	0
<0x42>	0
<0x43>	0
<0x44>	0
<0x45>	0
<0x46>	0
<0x47>	0
<0x48>	0
<0x49>	0
<0x4A>	0
<0x4B>	0
<0x4C>	0
<0x4D>	0
<0x4E>	0
<0x4F>	0
<0x50>	0
<0x51>	0
<0x52>	0
<0x53>	0
<0x54>	0
<0x55>	0
<0x56>	0
<0x57>	0
<0x58>	0
<0x59>	0
<0x5A>	0
<0x5B>	0
<0x5C>	0
<0x5D>	0
<0x5E>	0
<0x5F>	0
<0x60>	0
<0x61>	0
<0x62>	0
<0x63>	0
<0x64>	0
<0x65>	0
<0x66>	0
<0x67>	0
<0x68>	0
<0x69>	0
<0x6A>	0
<0x6B>	0
<0x6C>	0
<0x6D>	0
<0x6E>	0
<0x6F>	0
<0x70>	0
<0x71>	0
<0x72>	0
<0x73>	0
<0x74>	0
<0x75>	0
<0x76>	0
<0x77>	0
<0x78>	0
<0x79>	0
<0x7A>	0
<0x7B>	0
<0x7C>	0
<0x7D>	0
<0x7E>	0
<0x7F>	0
<0x80>	0
<0x81>	0
<0x82>	0
<0x83>	0
<0x84>	0
<0x85>	0
<0x86>	0
<0x87>	0
<0x88>	0
<0x89>	0
<0x8A>	0
<0x8B>	0
<0x8C>	0
<0x8D>	0
<0x8E>	0
<0x8F>	0
<0x90>	0
<0x91>	0
<0x92>	0
<0x93>	0
<0x94>	0
<0x95>	0
<0x96>	0
<0x97>	0
<0x98>	0
<0x99>	0
<0x9A>	0
<0x9B>	0
<0x9C>	0
<0x9D>	0
<0x9E>	0
<0x9F>	0
<0xA0>	0
<0xA1>	0
<0xA2>	0
<0xA3>	0
<0xA4>	0
<0xA5>	0
<0xA6>	0
<0xA7>	0
<0xA8>	0
<0xA9>	0
<0xAA>	0
<0xAB>	0
<0xAC>	0
<0xAD>	0
<0xAE>	0
<0xAF>	0
<0xB0>	0
<0xB1>	0
<0xB2>	0
<0xB3>	0
<0xB4>	0
<0xB5>	0
<0xB6>	0
<0xB7>	0
<0xB8>	0
<0xB9>	0
<0xBA>	0
<0xBB>	0
<0xBC>	0
<0xBD>	0
<0xBE>	0
<0xBF>	0
<0xC0>	0
<0xC1>	0
<0xC2>	0
<0xC3>	0
<0xC4>	0
<0xC5>	0
<0xC6>	0
<0xC7>	0
<0xC8>	0
<0xC9>	0
<0xCA>	0
<0xCB>	0
<0xCC>	0
<0xCD>	0
<0xCE>	0
<0xCF>	0
<0xD0>	0
<0xD1>	0
<0xD2>	0
<0xD3>	0
<0xD4>	0
<0xD5>	0
<0xD6>	0
<0xD7>	0
<0xD8>	0
<0xD9>	0
<0xDA>	0
<0xDB>	0
<0xDC>	0
<0xDD>	0
<0xDE>	0
<0xDF>	0
<0xE0>	0
<0xE1>	0
<0xE2>	0
<0xE3>	0
<0xE4>	0
<0xE5>	0
<0xE6>	0
<0xE7>	0
<0xE8>	0
<0xE9>	0
<0xEA>	0
<0xEB>	0
<0xEC>	0
<0xED>	0
<0xEE>	0
<0xEF>	0
<0xF0>	0
<0xF1>	0
<0xF2>	0
<0xF3>	0
<0xF4>	0
<0xF5>	0
<0xF6>	0
<0xF7>	0
<0xF8>	0
<0xF9>	0
<0xFA>	0
<0xFB>	0
<0xFC>	0
<0xFD>	0
<0xFE>	0
<0xFF>	0
▁t	-0
▁a	-1
he	-2
in	-3
er	-4
on	-5
▁the	-6
re	-7
▁o	-8
at	-9
▁s	-10
en	-11
an	-12
is	-13
or	-14
▁c	-15
ed	-16
▁w	-17
es	-18
it	-19
al	-20
▁of	-21
▁an	-22
▁f	-23
ar	-24
▁in	-25
▁p	-26
▁b	-27
ing	-28
ic	-29
ion	-30
▁and	-31
ro	-32
as	-33
▁m	-34
▁d	-35
▁to	-36
le	-37
▁T	-38
ou	-39
ent	-40
▁S	-41
▁h	-42
▁A	-43
ct	-44
il	-45
▁C	-46
▁(	-47
om	-48
▁re	-49
st	-50
▁th	-51
▁e	-52
el	-53
▁n	-54
▁l	-55
ol	-56
et	-57
am	-58
ation	-59
▁is	-60
▁M	-61
▁I	-62
im	-63
iv	-64
ch	-65
ur	-66
▁The	-67
▁B	-68
us	-69
▁P	-70
ly	-71
ce	-72
▁for	-73
▁g	-74
un	-75
id	-76
ot	-77
ut	-78
ad	-79
ig	-80
▁on	-81
ow	-82
▁be	-83
ir	-84
ers	-85
▁H	-86
ith	-87
▁as	-88
▁R	-89
ul	-90
ra	-91
▁st	-92
▁F	-93
▁D	-94
▁that	-95
▁L	-96
ay	-97
▁W	-98
ist	-99
em	-100
▁con	-101
▁with	-102
▁al	-103
os	-104
her	-105
ver	-106
▁was	-107
ter	-108
▁G	-109
▁N	-110
▁pro	-111
▁E	-112
um	-113
od	-114
th	-115
▁by	-116
if	-117
▁v	-118
and	-119
ag	-120
▁wh	-121
est	-122
▁In	-123
ab	-124
▁de	-125
▁are	-126
rom	-127
av	-128
op	-129
ac	-130
res	-131
▁it	-132
▁com	-133
ri	-134
ity	-135
▁J	-136
▁at	-137
▁O	-138
ect	-139
▁or	-140
ate	-141
ain	-142
qu	-143
ies	-144
▁from	-145
▁ex	-146
up	-147
oc	-148
ore	-149
▁he	-150
▁r	-151
ill	-152
ess	-153
oun	-154
▁se	-155
ant	-156
se	-157
▁y	-158
ment	-159
ud	-160
art	-161
ive	-162
igh	-163
ort	-164
all	-165
ap	-166
▁U	-167
ak	-168
▁K	-169
ew	-170
ld	-171
ich	-172
ial	-173
▁ch	-174
▁su	-175
our	-176
▁"	-177
pe	-178
ure	-179
▁un	-180
ard	-181
ian	-182
ge	-183
ated	-184
og	-185
ber	-186
ical	-187
▁us	-188
▁le	-189
▁k	-190
end	-191
ia	-192
pl	-193
ine	-194
ions	-195
▁pl	-196
▁St	-197
▁we	-198
ave	-199
▁sh	-200
ov	-201
▁.	-202
ary	-203
ell	-204
ip	-205
ast	-206
▁which	-207
▁not	-208
▁comp	-209
ost	-210
du	-211
▁V	-212
gh	-213
),	-214
ther	-215
ong	-216
pt	-217
der	-218
▁can	-219
ight	-220
iz	-221
▁=	-222
ere	-223
ff	-224
▁whe	-225
ish	-226
ult	-227
▁his	-228
ear	-229
per	-230
ust	-231
).	-232
▁Ch	-233
▁this	-234
▁-	-235
ans	-236
so	-237
ire	-238
ork	-239
▁have	-240
▁Th	-241
ations	-242
▁,	-243
ence	-244
orm	-245
act	-246
cl	-247
ame	-248
▁cont	-249
ord	-250
ous	-251
ue	-252
▁cl	-253
▁res	-254
ome	-255
▁int	-256
ition	-257
ub	-258
▁were	-259
ide	-260
mer	-261
age	-262
▁ab	-263
ach	-264
ass	-265
cc	-266
are	-267
port	-268
▁im	-269
ction	-270
ign	-271
▁also	-272
▁has	-273
▁ad	-274
▁all	-275
▁ap	-276
ru	-277
ie	-278
ens	-279
▁ar	-280
ib	-281
fer	-282
▁their	-283
ep	-284
out	-285
ric	-286
ang	-287
ry	-288
ould	-289
ack	-290
rit	-291
▁Un	-292
ater	-293
ok	-294
ally	-295
ime	-296
able	-297
▁It	-298
▁[	-299
erv	-300
▁ne	-301
▁en	-302
ance	-303
ents	-304
▁Y	-305
▁j	-306
oll	-307
irst	-308
ory	-309
▁–	-310
▁part	-311
▁one	-312
▁te	-313
▁dis	-314
ph	-315
▁An	-316
▁ro	-317
ree	-318
own	-319
▁per	-320
ely	-321
ond	-322
ren	-323
ase	-324
▁its	-325
▁tr	-326
ound	-327
ice	-328
▁Al	-329
▁but	-330
ount	-331
ors	-332
wo	-333
▁other	-334
▁He	-335
und	-336
▁)	-337
ates	-338
ik	-339
ace	-340
tern	-341
vel	-342
int	-343
ress	-344
form	-345
▁man	-346
▁|	-347
▁sp	-348
▁first	-349
ces	-350
ild	-351
▁pre	-352
▁had	-353
▁sc	-354
▁they	-355
erm	-356
▁Re	-357
ood	-358
te	-359
ite	-360
ational	-361
over	-362
hed	-363
ugh	-364
▁rec	-365
ark	-366
▁sy	-367
▁more	-368
ile	-369
ose	-370
amp	-371
etw	-372
fter	-373
clud	-374
▁bec	-375
ey	-376
ck	-377
▁ev	-378
▁two	-379
ind	-380
▁me	-381
▁out	-382
▁who	-383
▁gro	-384
▁This	-385
land	-386
ath	-387
▁ag	-388
aus	-389
▁des	-390
▁over	-391
ced	-392
ons	-393
ail	-394
▁up	-395
▁comm	-396
▁year	-397
▁been	-398
pec	-399
pro	-400
ener	-401
ool	-402
▁As	-403
ings	-404
meric	-405
▁work	-406
▁time	-407
ased	-408
old	-409
als	-410
les	-411
▁Pro	-412
rib	-413
▁−	-414
ari	-415
▁such	-416
▁includ	-417
▁into	-418
▁cons	-419
▁qu	-420
▁play	-421
ob	-422
▁do	-423
aw	-424
olog	-425
ram	-426
▁will	-427
▁Se	-428
lect	-429
▁so	-430
ake	-431
orn	-432
ade	-433
reat	-434
ited	-435
▁Ar	-436
ivers	-437
uring	-438
▁when	-439
ics	-440
ied	-441
ms	-442
one	-443
▁Americ	-444
▁where	-445
▁Com	-446
▁there	-447
▁sub	-448
▁act	-449
▁you	-450
▁ass	-451
ough	-452
ts	-453
ject	-454
▁pe	-455
ollow	-456
▁stud	-457
wn	-458
▁kn	-459
iss	-460
▁tra	-461
▁mod	-462
▁En	-463
ople	-464
ular	-465
ubl	-466
een	-467
▁set	-468
rough	-469
▁new	-470
ific	-471
▁On	-472
▁only	-473
▁De	-474
▁under	-475
stem	-476
ning	-477
▁than	-478
▁rel	-479
ve	-480
cre	-481
▁ob	-482
▁+	-483
▁some	-484
▁inter	-485
▁“	-486
▁used	-487
pos	-488
▁We	-489
ook	-490
▁dif	-491
very	-492
▁most	-493
oint	-494
▁reg	-495
ys	-496
oth	-497
▁about	-498
▁follow	-499
chool	-500
▁num	-501
ution	-502
ict	-503
▁produ	-504
ft	-505
▁sup	-506
ual	-507
ities	-508
▁acc	-509
▁if	-510
▁then	-511
etween	-512
ks	-513
▁New	-514
▁ind	-515
▁form	-516
▁her	-517
▁def	-518
ative	-519
▁after	-520
hen	-521
▁pr	-522
orld	-523
tain	-524
▁would	-525
ward	-526
ating	-527
urn	-528
▁fl	-529
▁Z	-530
▁between	-531
▁Le	-532
▁dist	-533
▁ra	-534
ays	-535
▁may	-536
ug	-537
hes	-538
ont	-539
ower	-540
cess	-541
▁loc	-542
▁∈	-543
▁col	-544
ists	-545
ran	-546
ix	-547
▁att	-548
▁co	-549
▁gener	-550
resent	-551
▁spec	-552
ince	-553
gan	-554
▁x	-555
arch	-556
▁X	-557
▁fe	-558
▁use	-559
▁prov	-560
▁trans	-561
ral	-562
oy	-563
▁For	-564
ient	-565
▁off	-566
▁American	-567
ember	-568
▁system	-569
▁these	-570
ars	-571
▁met	-572
▁pos	-573
▁bl	-574
▁est	-575
ise	-576
vi	-577
▁pol	-578
fore	-579
ick	-580
ins	-581
▁through	-582
red	-583
▁any	-584
▁them	-585
ility	-586
▁people	-587
ures	-588
velop	-589
io	-590
▁prob	-591
▁no	-592
hip	-593
▁cent	-594
ax	-595
inal	-596
ex	-597
ident	-598
ments	-599
▁rem	-600
ause	-601
▁exp	-602
▁i	-603
▁am	-604
arg	-605
▁ph	-606
▁differ	-607
ike	-608
▁each	-609
ten	-610
▁sim	-611
iel	-612
ily	-613
ished	-614
ever	-615
▁bu	-616
▁inv	-617
ision	-618
ock	-619
ury	-620
ah	-621
ple	-622
▁add	-623
▁ac	-624
▁Sc	-625
▁result	-626
ible	-627
▁group	-628
oh	-629
raph	-630
▁ed	-631
▁op	-632
iversity	-633
ted	-634
ll	-635
oci	-636
▁em	-637
▁years	-638
▁const	-639
ton	-640
its	-641
▁Sh	-642
▁many	-643
ined	-644
any	-645
ruct	-646
▁vari	-647
ract	-648
▁serv	-649
ife	-650
cond	-651
ection	-652
cent	-653
man	-654
▁fil	-655
▁Q	-656
ines	-657
▁eff	-658
ism	-659
.,	-660
▁well	-661
ale	-662
orth	-663
▁ear	-664
▁call	-665
▁how	-666
cy	-667
▁develop	-668
▁show	-669
outh	-670
▁your	-671
▁inst	-672
▁number	-673
ural	-674
▁sur	-675
▁Wh	-676
ement	-677
▁sm	-678
uc	-679
round	-680
▁during	-681
air	-682
ature	-683
att	-684
pr	-685
ider	-686
ier	-687
▁found	-688
▁Con	-689
▁ty	-690
els	-691
ros	-692
▁ext	-693
eg	-694
▁min	-695
▁end	-696
▁comple	-697
▁high	-698
ball	-699
▁sign	-700
▁fun	-701
▁mon	-702
oot	-703
▁publ	-704
▁Ind	-705
▁Eng	-706
▁ent	-707
ames	-708
ield	-709
ata	-710
ron	-711
▁she	-712
ove	-713
way	-714
irect	-715
ized	-716
ues	-717
▁Cl	-718
aj	-719
▁mat	-720
ern	-721
ting	-722
▁three	-723
uch	-724
▁inf	-725
ason	-726
▁him	-727
▁det	-728
ann	-729
▁United	-730
az	-731
gram	-732
▁again	-733
▁Ex	-734
ful	-735
cept	-736
ants	-737
ages	-738
▁our	-739
▁Col	-740
▁University	-741
ually	-742
▁appro	-743
ically	-744
▁How	-745
▁writ	-746
▁dec	-747
▁rep	-748
overn	-749
emb	-750
▁child	-751
ty	-752
▁both	-753
▁same	-754
▁different	-755
▁resp	-756
erson	-757
ology	-758
▁ret	-759
lish	-760
▁known	-761
▁class	-762
other	-763
ange	-764
ute	-765
▁being	-766
▁pop	-767
▁val	-768
iver	-769
yn	-770
▁made	-771
chn	-772
▁giv	-773
▁:	-774
ved	-775
▁equ	-776
▁gr	-777
▁count	-778
elf	-779
ices	-780
ather	-781
▁At	-782
▁need	-783
uss	-784
▁main	-785
hem	-786
▁fin	-787
▁second	-788
ink	-789
▁art	-790
▁point	-791
▁lead	-792
ional	-793
▁while	-794
▁aut	-795
▁ser	-796
ets	-797
ash	-798
▁disc	-799
▁school	-800
▁fam	-801
▁go	-802
alth	-803
▁sol	-804
eng	-805
▁mus	-806
▁hel	-807
ene	-808
▁char	-809
▁car	-810
ank	-811
▁There	-812
▁partic	-813
ample	-814
▁Is	-815
▁sing	-816
led	-817
▁using	-818
▁med	-819
▁oper	-820
▁long	-821
▁·	-822
imes	-823
▁Sp	-824
▁Ad	-825
▁Or	-826
▁bel	-827
▁ele	-828
▁par	-829
▁proble	-830
▁cap	-831
▁sa	-832
▁following	-833
▁perform	-834
ness	-835
vent	-836
gy	-837
ec	-838
ization	-839
plic	-840
▁cre	-841
ived	-842
formation	-843
▁dep	-844
▁small	-845
▁could	-846
▁Ph	-847
ired	-848
of	-849
ience	-850
ize	-851
ulation	-852
▁fact	-853
▁cor	-854
▁program	-855
ially	-856
▁process	-857
▁cur	-858
▁back	-859
cer	-860
▁later	-861
aking	-862
▁direct	-863
istory	-864
▁before	-865
con	-866
ull	-867
ality	-868
▁consider	-869
ium	-870
▁including	-871
gor	-872
▁Joh	-873
▁state	-874
▁mov	-875
▁appe	-876
uro	-877
▁term	-878
▁incre	-879
▁rele	-880
▁sever	-881
▁help	-882
ouse	-883
put	-884
▁Brit	-885
ety	-886
▁called	-887
▁own	-888
ases	-889
..	-890
▁Can	-891
▁team	-892
▁requ	-893
▁States	-894
ma	-895
."	-896
▁because	-897
▁design	-898
com	-899
hod	-900
▁orig	-901
▁If	-902
▁Comm	-903
▁str	-904
til	-905
▁Pl	-906
▁ins	-907
▁≤	-908
▁Tr	-909
ared	-910
▁water	-911
son	-912
▁Bl	-913
iqu	-914
arge	-915
ator	-916
ected	-917
▁what	-918
ains	-919
▁contro	-920
▁di	-921
xt	-922
ley	-923
▁They	-924
ven	-925
▁like	-926
▁contin	-927
".	-928
ina	-929
▁lear	-930
omet	-931
ives	-932
▁commun	-933
ode	-934
itions	-935
▁sl	-936
▁Aust	-937
the	-938
▁data	-939
ively	-940
ross	-941
▁non	-942
▁import	-943
▁John	-944
ences	-945
▁occ	-946
ner	-947
ior	-948
▁order	-949
▁&	-950
▁gu	-951
ird	-952
▁elect	-953
▁desc	-954
arm	-955
▁estab	-956
▁four	-957
▁record	-958
▁National	-959
ober	-960
rent	-961
▁every	-962
angu	-963
▁line	-964
▁sk	-965
inc	-966
▁effect	-967
rop	-968
▁World	-969
rid	-970
▁support	-971
acter	-972
▁exper	-973
ians	-974
▁world	-975
▁However	-976
ious	-977
▁became	-978
▁start	-979
▁since	-980
▁Mar	-981
▁very	-982
ox	-983
▁bro	-984
▁War	-985
ote	-986
ne	-987
▁life	-988
▁govern	-989
▁hum	-990
▁z	-991
etwork	-992
▁Be	-993
▁build	-994
ym	-995
▁Germ	-996
▁even	-997
ability	-998
",	-999
▁area	-1000
ides	-1001
▁power	-1002
oss	-1003
rist	-1004
▁cond	-1005
▁based	-1006
▁Te	-1007
ajor	-1008
▁run	-1009
▁Car	-1010
▁make	-1011
▁right	-1012
▁against	-1013
une	-1014
iam	-1015
▁now	-1016
▁poss	-1017
▁large	-1018
▁level	-1019
▁case	-1020
eb	-1021
▁organ	-1022
▁see	-1023
▁present	-1024
omen	-1025
ands	-1026
▁vi	-1027
ternational	-1028
▁pres	-1029
ided	-1030
eter	-1031
urch	-1032
▁function	-1033
enn	-1034
to	-1035
bum	-1036
▁{	-1037
gorith	-1038
ining	-1039
▁until	-1040
▁several	-1041
▁techn	-1042
▁should	-1043
iving	-1044
▁model	-1045
▁given	-1046
▁name	-1047
▁film	-1048
ital	-1049
▁Pr	-1050
▁After	-1051
ootball	-1052
rict	-1053
▁pat	-1054
atic	-1055
▁just	-1056
▁Ass	-1057
▁way	-1058
▁those	-1059
▁bas	-1060
▁All	-1061
▁method	-1062
▁School	-1063
▁series	-1064
▁allow	-1065
▁Ge	-1066
ke	-1067
ency	-1068
ody	-1069
▁rese	-1070
ane	-1071
▁air	-1072
ified	-1073
▁She	-1074
▁mult	-1075
▁British	-1076
▁test	-1077
by	-1078
▁open	-1079
gg	-1080
▁dr	-1081
▁Let	-1082
ccess	-1083
ilar	-1084
The	-1085
min	-1086
▁av	-1087
ai	-1088
tle	-1089
▁app	-1090
▁example	-1091
▁information	-1092
ograph	-1093
▁person	-1094
ission	-1095
▁ref	-1096
▁early	-1097
▁By	-1098
akes	-1099
▁York	-1100
▁Am	-1101
▁expl	-1102
ords	-1103
ague	-1104
iron	-1105
▁often	-1106
▁Euro	-1107
▁et	-1108
▁conf	-1109
ately	-1110
▁May	-1111
▁around	-1112
tt	-1113
▁South	-1114
▁children	-1115
vers	-1116
ths	-1117
ised	-1118
▁Cent	-1119
▁much	-1120
▁down	-1121
ves	-1122
▁And	-1123
par	-1124
read	-1125
anc	-1126
ival	-1127
▁No	-1128
por	-1129
▁near	-1130
▁does	-1131
▁pass	-1132
▁public	-1133
▁Mus	-1134
▁represent	-1135
▁rest	-1136
▁care	-1137
▁To	-1138
iod	-1139
▁season	-1140
▁know	-1141
au	-1142
▁English	-1143
▁important	-1144
▁common	-1145
yl	-1146
▁prot	-1147
▁local	-1148
▁Austral	-1149
▁did	-1150
▁find	-1151
▁comput	-1152
ration	-1153
▁lit	-1154
amed	-1155
▁album	-1156
▁These	-1157
▁read	-1158
▁When	-1159
▁rece	-1160
ring	-1161
▁proper	-1162
▁struct	-1163
▁anal	-1164
ott	-1165
aving	-1166
▁typ	-1167
itive	-1168
▁students	-1169
ries	-1170
ole	-1171
mp	-1172
▁family	-1173
ended	-1174
row	-1175
ently	-1176
▁place	-1177
▁North	-1178
▁book	-1179
▁'	-1180
▁polit	-1181
▁Count	-1182
isc	-1183
▁II	-1184
▁within	-1185
itional	-1186
ats	-1187
▁Canad	-1188
app	-1189
ording	-1190
my	-1191
▁Europe	-1192
▁gl	-1193
▁get	-1194
▁redu	-1195
▁opt	-1196
▁said	-1197
▁major	-1198
▁cell	-1199
▁top	-1200
hor	-1201
▁Res	-1202
bs	-1203
imal	-1204
ae	-1205
illion	-1206
▁death	-1207
▁er	-1208
▁along	-1209
▁langu	-1210
▁network	-1211
▁ide	-1212
▁ann	-1213
▁ident	-1214
anu	-1215
oman	-1216
istor	-1217
▁activ	-1218
▁law	-1219
view	-1220
urs	-1221
▁algorith	-1222
ffic	-1223
▁last	-1224
embers	-1225
▁hy	-1226
ger	-1227
▁eng	-1228
▁general	-1229
ison	-1230
▁stand	-1231
▁larg	-1232
▁aff	-1233
▁study	-1234
urther	-1235
▁ver	-1236
ribut	-1237
▁Af	-1238
▁dem	-1239
ference	-1240
▁Cal	-1241
▁report	-1242
▁single	-1243
▁include	-1244
▁still	-1245
▁vol	-1246
▁Ap	-1247
▁due	-1248
reen	-1249
rodu	-1250
▁describ	-1251
▁US	-1252
ination	-1253
▁Christ	-1254
▁music	-1255
▁Par	-1256
though	-1257
med	-1258
lear	-1259
▁head	-1260
▁problem	-1261
▁prof	-1262
ister	-1263
▁Gu	-1264
epend	-1265
ilit	-1266
].	-1267
▁win	-1268
▁less	-1269
▁bound	-1270
▁war	-1271
▁vis	-1272
▁control	-1273
ilt	-1274
▁return	-1275
▁indu	-1276
▁song	-1277
▁adv	-1278
▁character	-1279
ense	-1280
day	-1281
▁mark	-1282
olution	-1283
▁government	-1284
▁Ju	-1285
line	-1286
▁century	-1287
▁success	-1288
vious	-1289
▁beh	-1290
ourn	-1291
▁Ed	-1292
ued	-1293
▁lim	-1294
orem	-1295
▁day	-1296
sh	-1297
ivid	-1298
▁meas	-1299
▁stat	-1300
▁Nov	-1301
▁vers	-1302
▁tem	-1303
posed	-1304
▁Ab	-1305
▁Reg	-1306
ards	-1307
ocial	-1308
viron	-1309
▁offic	-1310
ried	-1311
▁Pol	-1312
▁cour	-1313
▁Pe	-1314
▁Fl	-1315
▁||	-1316
lege	-1317
ges	-1318
▁spe	-1319
ained	-1320
▁though	-1321
▁imp	-1322
gin	-1323
ergy	-1324
▁health	-1325
amb	-1326
▁another	-1327
let	-1328
▁log	-1329
ential	-1330
▁inc	-1331
ales	-1332
ek	-1333
▁Aug	-1334
▁similar	-1335
▁particular	-1336
▁field	-1337
▁take	-1338
ling	-1339
wards	-1340
▁chang	-1341
▁project	-1342
▁period	-1343
▁game	-1344
rem	-1345
▁/	-1346
▁Ear	-1347
aper	-1348
ster	-1349
lev	-1350
▁home	-1351
▁King	-1352
▁former	-1353
▁object	-1354
▁land	-1355
ples	-1356
stit	-1357
aster	-1358
▁must	-1359
▁conn	-1360
▁left	-1361
▁list	-1362
▁fre	-1363
▁obs	-1364
▁Bar	-1365
ument	-1366
▁leg	-1367
▁grow	-1368
ances	-1369
we	-1370
▁type	-1371
ruction	-1372
ify	-1373
▁estim	-1374
▁cer	-1375
hers	-1376
▁Br	-1377
▁current	-1378
▁players	-1379
aim	-1380
▁March	-1381
ps	-1382
▁sym	-1383
▁results	-1384
▁city	-1385
▁po	-1386
aced	-1387
oad	-1388
idd	-1389
▁hand	-1390
▁Bro	-1391
ume	-1392
▁old	-1393
get	-1394
▁q	-1395
alk	-1396
▁short	-1397
▁real	-1398
conom	-1399
▁mar	-1400
iness	-1401
▁August	-1402
irc	-1403
lished	-1404
▁species	-1405
ule	-1406
],	-1407
▁bre	-1408
▁Oct	-1409
▁won	-1410
▁human	-1411
▁manag	-1412
stand	-1413
▁Min	-1414
▁without	-1415
▁One	-1416
▁Gr	-1417
▁clos	-1418
▁→	-1419
▁space	-1420
ological	-1421
lu	-1422
de	-1423
▁Med	-1424
ored	-1425
ung	-1426
▁caus	-1427
▁Will	-1428
less	-1429
):	-1430
rain	-1431
born	-1432
▁body	-1433
▁eas	-1434
aces	-1435
▁educ	-1436
▁few	-1437
ptember	-1438
ript	-1439
val	-1440
▁Fran	-1441
ublic	-1442
▁rad	-1443
▁best	-1444
▁Sup	-1445
agn	-1446
▁good	-1447
▁comb	-1448
▁Man	-1449
▁Co	-1450
▁sit	-1451
anuary	-1452
▁associ	-1453
▁football	-1454
istic	-1455
▁history	-1456
aren	-1457
▁lab	-1458
ogn	-1459
▁pract	-1460
roup	-1461
▁great	-1462
▁members	-1463
▁iss	-1464
||	-1465
vironment	-1466
▁released	-1467
sp	-1468
▁u	-1469
pril	-1470
ification	-1471
oms	-1472
▁bus	-1473
ze	-1474
▁began	-1475
▁bo	-1476
▁product	-1477
▁invol	-1478
▁α	-1479
▁groups	-1480
ask	-1481
af	-1482
ured	-1483
▁State	-1484
ese	-1485
▁But	-1486
▁treat	-1487
▁June	-1488
▁trad	-1489
ends	-1490
ham	-1491
ering	-1492
▁City	-1493
▁station	-1494
ches	-1495
▁introdu	-1496
▁bir	-1497
▁among	-1498
▁ant	-1499
▁population	-1500
oid	-1501
▁research	-1502
▁es	-1503
▁cult	-1504
▁individ	-1505
ray	-1506
▁September	-1507
mber	-1508
▁His	-1509
▁men	-1510
▁hig	-1511
aterial	-1512
▁Har	-1513
ped	-1514
ention	-1515
ternal	-1516
▁January	-1517
▁above	-1518
apan	-1519
▁event	-1520
ators	-1521
▁July	-1522
ones	-1523
▁Fig	-1524
▁fore	-1525
▁plan	-1526
atural	-1527
▁Cor	-1528
▁October	-1529
▁deg	-1530
▁observ	-1531
▁development	-1532
▁div	-1533
ead	-1534
▁sum	-1535
▁April	-1536
▁interest	-1537
▁el	-1538
EE	-1539
ee	-1540
▁food	-1541
ris	-1542
▁gen	-1543
▁Afric	-1544
▁played	-1545
oph	-1546
▁With	-1547
ony	-1548
▁become	-1549
▁sour	-1550
▁established	-1551
▁County	-1552
rench	-1553
cember	-1554
▁init	-1555
▁hold	-1556
▁post	-1557
▁den	-1558
▁graph	-1559
ental	-1560
▁impro	-1561
ots	-1562
▁la	-1563
▁West	-1564
▁exist	-1565
▁crit	-1566
ither	-1567
▁times	-1568
▁bi	-1569
▁women	-1570
▁low	-1571
▁Ne	-1572
ampions	-1573
lection	-1574
▁ep	-1575
▁Rec	-1576
xim	-1577
mit	-1578
▁High	-1579
▁let	-1580
▁possible	-1581
osp	-1582
▁light	-1583
▁>	-1584
▁dra	-1585
▁Part	-1586
▁obtain	-1587
ules	-1588
ert	-1589
ille	-1590
duct	-1591
▁Act	-1592
iet	-1593
▁dom	-1594
▁cover	-1595
eder	-1596
▁max	-1597
▁Japan	-1598
▁respect	-1599
ief	-1600
tal	-1601
▁prom	-1602
che	-1603
▁mean	-1604
levision	-1605
▁Mc	-1606
▁my	-1607
ique	-1608
▁look	-1609
▁Sy	-1610
▁original	-1611
,”	-1612
▁El	-1613
▁phys	-1614
▁<	-1615
▁language	-1616
side	-1617
▁Geor	-1618
▁country	-1619
augh	-1620
▁del	-1621
▁December	-1622
▁Char	-1623
rap	-1624
cing	-1625
▁Me	-1626
▁International	-1627
▁town	-1628
ways	-1629
estern	-1630
▁Then	-1631
▁complex	-1632
▁German	-1633
▁November	-1634
▁Sw	-1635
▁learning	-1636
▁Dav	-1637
ape	-1638
▁≥	-1639
▁material	-1640
▁named	-1641
▁previous	-1642
ression	-1643
))	-1644
▁systems	-1645
here	-1646
▁Lem	-1647
rew	-1648
▁next	-1649
alf	-1650
▁dise	-1651
sequ	-1652
idence	-1653
▁built	-1654
atures	-1655
position	-1656
ope	-1657
oung	-1658
▁repl	-1659
▁algorithm	-1660
ridge	-1661
ailable	-1662
▁signific	-1663
▁sw	-1664
odes	-1665
▁ris	-1666
▁French	-1667
ming	-1668
▁games	-1669
▁tri	-1670
▁Comp	-1671
▁change	-1672
ged	-1673
▁$	-1674
▁various	-1675
▁areas	-1676
uk	-1677
ploy	-1678
ler	-1679
▁author	-1680
▁determ	-1681
resp	-1682
▁Since	-1683
▁side	-1684
▁cost	-1685
▁five	-1686
umb	-1687
▁appear	-1688
▁compet	-1689
ery	-1690
▁took	-1691
acy	-1692
ebru	-1693
▁published	-1694
icle	-1695
nd	-1696
▁Fr	-1697
▁Rep	-1698
▁energy	-1699
ebruary	-1700
▁Park	-1701
aul	-1702
▁League	-1703
▁somet	-1704
▁national	-1705
▁tit	-1706
▁value	-1707
adem	-1708
▁turn	-1709
ered	-1710
▁quest	-1711
ysis	-1712
oon	-1713
ector	-1714
▁ke	-1715
ribution	-1716
▁view	-1717
ects	-1718
▁band	-1719
▁arch	-1720
▁sequ	-1721
▁considered	-1722
▁sat	-1723
ills	-1724
▁cal	-1725
ware	-1726
▁norm	-1727
dom	-1728
aken	-1729
uation	-1730
▁special	-1731
▁You	-1732
▁econom	-1733
▁Theorem	-1734
▁however	-1735
ournal	-1736
▁fac	-1737
attle	-1738
▁six	-1739
ably	-1740
yle	-1741
▁During	-1742
ories	-1743
▁located	-1744
▁refer	-1745
▁held	-1746
ports	-1747
ables	-1748
ilitary	-1749
fic	-1750
▁independ	-1751
▁cho	-1752
▁Her	-1753
▁College	-1754
▁February	-1755
unic	-1756
▁free	-1757
aps	-1758
▁means	-1759
▁least	-1760
ociety	-1761
▁Trans	-1762
▁building	-1763
▁bet	-1764
▁size	-1765
▁step	-1766
chie	-1767
ights	-1768
▁port	-1769
ids	-1770
for	-1771
▁attack	-1772
▁prim	-1773
ondon	-1774
▁Des	-1775
ideo	-1776
ble	-1777
▁provide	-1778
olic	-1779
iction	-1780
▁final	-1781
▁million	-1782
lands	-1783
▁role	-1784
ulations	-1785
▁William	-1786
▁σ	-1787
lex	-1788
eth	-1789
▁Some	-1790
reg	-1791
apt	-1792
ows	-1793
▁applic	-1794
cil	-1795
rie	-1796
ana	-1797
umn	-1798
be	-1799
▁profess	-1800
▁follows	-1801
▁Acc	-1802
hern	-1803
▁pot	-1804
rix	-1805
▁mot	-1806
▁camp	-1807
▁environment	-1808
▁History	-1809
▁pain	-1810
▁learn	-1811
▁available	-1812
▁Bo	-1813
▁north	-1814
▁Lemma	-1815
inks	-1816
rad	-1817
pose	-1818
▁grad	-1819
▁further	-1820
▁company	-1821
▁Russ	-1822
uck	-1823
▁social	-1824
ford	-1825
▁included	-1826
▁Sch	-1827
▁Ag	-1828
▁Per	-1829
hing	-1830
inally	-1831
face	-1832
▁fr	-1833
▁che	-1834
▁cr	-1835
iber	-1836
▁having	-1837
ceed	-1838
ply	-1839
ops	-1840
▁age	-1841
ret	-1842
▁Phil	-1843
▁Art	-1844
▁total	-1845
▁—	-1846
ror	-1847
▁significant	-1848
▁third	-1849
empt	-1850
▁Gl	-1851
cle	-1852
urg	-1853
▁Qu	-1854
▁dev	-1855
imens	-1856
▁strong	-1857
ino	-1858
▁Air	-1859
rated	-1860
▁Ac	-1861
ending	-1862
▁Im	-1863
plement	-1864
iple	-1865
▁led	-1866
▁able	-1867
alt	-1868
▁enc	-1869
▁circ	-1870
orph	-1871
▁integ	-1872
gen	-1873
ald	-1874
▁′	-1875
▁London	-1876
▁claim	-1877
▁sent	-1878
ius	-1879
▁track	-1880
▁full	-1881
▁lower	-1882
▁Ang	-1883
most	-1884
▁What	-1885
▁arr	-1886
▁der	-1887
▁club	-1888
orthern	-1889
▁Indian	-1890
▁Mon	-1891
▁region	-1892
atter	-1893
▁relations	-1894
▁paper	-1895
urb	-1896
▁performance	-1897
co	-1898
▁separ	-1899
▁others	-1900
ocus	-1901
▁problems	-1902
▁natural	-1903
▁shows	-1904
ctions	-1905
▁points	-1906
▁deb	-1907
century	-1908
▁member	-1909
▁compos	-1910
aur	-1911
▁lik	-1912
▁From	-1913
andom	-1914
▁addition	-1915
asing	-1916
ivil	-1917
▁ren	-1918
▁approxim	-1919
▁histor	-1920
ched	-1921
▁player	-1922
ampionship	-1923
.”	-1924
▁Ser	-1925
ours	-1926
ington	-1927
▁Stud	-1928
raft	-1929
▁arg	-1930
▁cy	-1931
etic	-1932
▁jo	-1933
▁Gener	-1934
▁pri	-1935
▁surv	-1936
▁either	-1937
▁version	-1938
▁Cont	-1939
▁So	-1940
cur	-1941
▁λ	-1942
▁access	-1943
ream	-1944
▁br	-1945
▁pred	-1946
▁understand	-1947
▁invest	-1948
ving	-1949
▁pp	-1950
▁received	-1951
▁service	-1952
respond	-1953
aff	-1954
▁production	-1955
iforn	-1956
▁engine	-1957
ggest	-1958
▁influ	-1959
▁developed	-1960
▁suggest	-1961
▁Ital	-1962
atch	-1963
▁achie	-1964
▁written	-1965
▁vill	-1966
ography	-1967
▁}	-1968
▁exam	-1969
imum	-1970
ilities	-1971
▁produced	-1972
rees	-1973
▁indust	-1974
itor	-1975
▁usually	-1976
lected	-1977
ients	-1978
▁works	-1979
sc	-1980
aining	-1981
▁site	-1982
▁key	-1983
▁approach	-1984
▁structure	-1985
▁certain	-1986
reet	-1987
▁might	-1988
▁making	-1989
▁created	-1990
artment	-1991
▁Pres	-1992
rel	-1993
▁community	-1994
▁feature	-1995
▁occur	-1996
▁While	-1997
▁Californ	-1998
▁south	-1999
▁came	-2000
▁ill	-2001
▁kill	-2002
bo	-2003
▁ground	-2004
aves	-2005
▁late	-2006
▁house	-2007
▁section	-2008
▁television	-2009
aut	-2010
▁β	-2011
arian	-2012
▁England	-2013
▁position	-2014
▁Sm	-2015
ara	-2016
▁loss	-2017
▁better	-2018
▁Other	-2019
gether	-2020
▁together	-2021
▁California	-2022
▁tw	-2023
▁First	-2024
▁popular	-2025
▁Mich	-2026
▁sem	-2027
▁path	-2028
▁rate	-2029
▁across	-2030
▁America	-2031
▁lay	-2032
▁River	-2033
▁conditions	-2034
▁business	-2035
rick	-2036
▁∗	-2037
ouncil	-2038
▁scient	-2039
▁press	-2040
▁career	-2041
▁correspond	-2042
▁Dr	-2043
▁Dist	-2044
not	-2045
order	-2046
▁Sim	-2047
▁say	-2048
▁begin	-2049
▁recogn	-2050
▁cases	-2051
▁San	-2052
self	-2053
▁described	-2054
▁Canada	-2055
ength	-2056
▁Tra	-2057
cast	-2058
▁belie	-2059
▁Dep	-2060
now	-2061
▁param	-2062
▁defined	-2063
▁focus	-2064
na	-2065
▁]	-2066
▁want	-2067
▁establish	-2068
==	-2069
atory	-2070
▁days	-2071
▁East	-2072
iting	-2073
▁hard	-2074
▁People	-2075
▁sold	-2076
imate	-2077
▁Em	-2078
▁indic	-2079
▁aver	-2080
▁far	-2081
off	-2082
▁range	-2083
ext	-2084
▁More	-2085
▁ge	-2086
rate	-2087
▁plant	-2088
▁seen	-2089
▁shown	-2090
▁here	-2091
iles	-2092
▁mem	-2093
▁×	-2094
inition	-2095
aries	-2096
▁born	-2097
based	-2098
▁disease	-2099
▁frequ	-2100
▁discuss	-2101
▁ter	-2102
▁served	-2103
onst	-2104
ero	-2105
ney	-2106
rest	-2107
▁behav	-2108
bor	-2109
ements	-2110
▁European	-2111
ising	-2112
▁states	-2113
▁Def	-2114
▁types	-2115
▁base	-2116
lin	-2117
thern	-2118
▁‘	-2119
ems	-2120
▁fail	-2121
▁terms	-2122
▁Ber	-2123
iment	-2124
▁Australia	-2125
▁vir	-2126
omes	-2127
▁higher	-2128
▁blood	-2129
ixed	-2130
▁David	-2131
▁dest	-2132
▁squ	-2133
lymp	-2134
eh	-2135
wh	-2136
avy	-2137
▁random	-2138
▁regular	-2139
▁training	-2140
▁Roman	-2141
▁Cons	-2142
▁standard	-2143
,"	-2144
▁nov	-2145
▁political	-2146
▁links	-2147
aches	-2148
omm	-2149
iddle	-2150
▁Associ	-2151
▁story	-2152
▁India	-2153
▁elements	-2154
uture	-2155
▁Church	-2156
▁clear	-2157
rary	-2158
ached	-2159
▁modern	-2160
▁),	-2161
ires	-2162
▁Olymp	-2163
AS	-2164
▁Order	-2165
▁put	-2166
▁red	-2167
▁Red	-2168
ij	-2169
▁half	-2170
▁ship	-2171
▁sens	-2172
▁too	-2173
▁analysis	-2174
▁cells	-2175
outhern	-2176
▁Not	-2177
bit	-2178
▁cause	-2179
▁matrix	-2180
▁amount	-2181
▁son	-2182
ush	-2183
ficult	-2184
arc	-2185
▁consist	-2186
ping	-2187
ander	-2188
▁died	-2189
omb	-2190
▁films	-2191
iers	-2192
fact	-2193
▁host	-2194
ww	-2195
▁distribution	-2196
▁Bel	-2197
▁measure	-2198
cret	-2199
▁words	-2200
hel	-2201
▁offer	-2202
bra	-2203
uel	-2204
chan	-2205
▁never	-2206
ude	-2207
anish	-2208
▁taken	-2209
ica	-2210
eum	-2211
ha	-2212
▁fund	-2213
lying	-2214
▁Met	-2215
▁Ste	-2216
ensive	-2217
duc	-2218
▁keep	-2219
▁education	-2220
▁Australian	-2221
inary	-2222
▁pur	-2223
▁Fil	-2224
▁associated	-2225
▁specific	-2226
▁liter	-2227
▁action	-2228
sw	-2229
▁thus	-2230
▁discover	-2231
▁coll	-2232
▁Bu	-2233
▁difficult	-2234
▁construct	-2235
pecially	-2236
▁Port	-2237
reek	-2238
▁Roy	-2239
▁neg	-2240
▁condition	-2241
oor	-2242
hib	-2243
▁polic	-2244
▁broad	-2245
▁According	-2246
aching	-2247
▁House	-2248
inated	-2249
▁rock	-2250
▁young	-2251
me	-2252
ledge	-2253
▁models	-2254
▁features	-2255
▁temper	-2256
▁attempt	-2257
sk	-2258
utions	-2259
▁video	-2260
▁military	-2261
▁sound	-2262
utes	-2263
▁dam	-2264
rag	-2265
bert	-2266
▁past	-2267
obal	-2268
▁risk	-2269
ties	-2270
▁Instit	-2271
▁bene	-2272
clus	-2273
▁).	-2274
▁subject	-2275
▁mass	-2276
▁decl	-2277
och	-2278
▁La	-2279
▁once	-2280
▁give	-2281
▁compon	-2282
volution	-2283
sy	-2284
▁require	-2285
▁Rober	-2286
▁cross	-2287
NA	-2288
abor	-2289
▁away	-2290
▁methods	-2291
cial	-2292
▁anim	-2293
ades	-2294
tic	-2295
▁mer	-2296
▁live	-2297
▁don	-2298
▁Although	-2299
▁moved	-2300
▁necess	-2301
▁God	-2302
▁µ	-2303
▁Press	-2304
ores	-2305
▁phot	-2306
▁See	-2307
▁priv	-2308
▁think	-2309
▁Div	-2310
hood	-2311
▁changes	-2312
▁international	-2313
▁percent	-2314
icro	-2315
ien	-2316
medi	-2317
inn	-2318
aring	-2319
▁events	-2320
▁always	-2321
▁Paul	-2322
▁births	-2323
▁below	-2324
▁values	-2325
minist	-2326
▁simple	-2327
▁Jew	-2328
▁parts	-2329
▁Govern	-2330
ulated	-2331
▁entire	-2332
▁Cup	-2333
time	-2334
▁individual	-2335
ened	-2336
▁syn	-2337
▁Figure	-2338
▁levels	-2339
▁γ	-2340
▁Val	-2341
▁abs	-2342
▁imm	-2343
ama	-2344
▁employ	-2345
▁according	-2346
▁announ	-2347
▁James	-2348
▁working	-2349
▁implement	-2350
▁theory	-2351
▁exec	-2352
BC	-2353
▁ens	-2354
▁General	-2355
▁particip	-2356
▁fri	-2357
itect	-2358
▁concept	-2359
plied	-2360
▁doc	-2361
▁rather	-2362
ols	-2363
▁proof	-2364
▁went	-2365
▁image	-2366
▁Bra	-2367
▁countries	-2368
bon	-2369
▁related	-2370
▁official	-2371
▁princ	-2372
▁Rich	-2373
▁construction	-2374
▁account	-2375
▁respons	-2376
ites	-2377
iven	-2378
umpt	-2379
back	-2380
▁Thom	-2381
▁required	-2382
ibility	-2383
▁Mark	-2384
▁father	-2385
▁element	-2386
ael	-2387
▁increase	-2388
rote	-2389
▁ess	-2390
▁prevent	-2391
ula	-2392
▁detail	-2393
▁average	-2394
▁word	-2395
▁Mor	-2396
elling	-2397
▁George	-2398
▁saf	-2399
▁δ	-2400
ressed	-2401
▁contains	-2402
▁source	-2403
.)	-2404
▁fall	-2405
oted	-2406
▁Germany	-2407
▁Army	-2408
▁conver	-2409
▁black	-2410
▁started	-2411
▁θ	-2412
▁happ	-2413
ico	-2414
▁length	-2415
▁•	-2416
earch	-2417
udd	-2418
▁Science	-2419
izing	-2420
play	-2421
▁epis	-2422
▁provided	-2423
▁proposed	-2424
▁pers	-2425
▁π	-2426
itz	-2427
▁Pat	-2428
▁schools	-2429
▁especially	-2430
▁functions	-2431
▁Γ	-2432
ground	-2433
ville	-2434
▁future	-2435
▁surface	-2436
▁Thus	-2437
ett	-2438
van	-2439
field	-2440
▁suff	-2441
▁resour	-2442
▁relig	-2443
iding	-2444
▁Association	-2445
arily	-2446
▁Republic	-2447
ections	-2448
▁although	-2449
▁little	-2450
▁satis	-2451
▁almost	-2452
ready	-2453
▁road	-2454
▁France	-2455
▁Hol	-2456
▁meet	-2457
▁wind	-2458
▁Cour	-2459
▁throughout	-2460
▁communic	-2461
▁come	-2462
▁Canadian	-2463
▁cop	-2464
ynam	-2465
▁calc	-2466
▁via	-2467
▁text	-2468
irl	-2469
▁treatment	-2470
▁input	-2471
oe	-2472
▁Union	-2473
ateg	-2474
▁close	-2475
annel	-2476
▁fire	-2477
ributed	-2478
▁linear	-2479
▁conduct	-2480
▁Lou	-2481
▁Inter	-2482
bers	-2483
//	-2484
▁services	-2485
CA	-2486
▁Aut	-2487
▁Earth	-2488
▁Tur	-2489
ishing	-2490
▁whose	-2491
istics	-2492
▁formed	-2493
▁Mod	-2494
▁Most	-2495
▁rail	-2496
▁Christian	-2497
▁includes	-2498
like	-2499
▁mach	-2500
▁title	-2501
▁whether	-2502
▁solution	-2503
▁conc	-2504
▁itself	-2505
▁anc	-2506
▁Cath	-2507
fl	-2508
▁weight	-2509
ili	-2510
▁uses	-2511
▁Black	-2512
rug	-2513
▁enough	-2514
▁My	-2515
icles	-2516
▁pair	-2517
unicip	-2518
rian	-2519
▁Serv	-2520
eters	-2521
St	-2522
▁chem	-2523
▁That	-2524
);	-2525
▁Section	-2526
▁bar	-2527
▁largest	-2528
://	-2529
▁fem	-2530
▁#	-2531
▁reason	-2532
▁likely	-2533
▁Que	-2534
astic	-2535
▁Arch	-2536
▁tro	-2537
▁degree	-2538
▁create	-2539
▁independent	-2540
▁self	-2541
▁capt	-2542
▁male	-2543
▁round	-2544
▁successful	-2545
kn	-2546
▁paren	-2547
▁probability	-2548
▁Pal	-2549
▁already	-2550
men	-2551
▁rank	-2552
que	-2553
▁creat	-2554
▁continued	-2555
erc	-2556
▁complete	-2557
▁Do	-2558
ER	-2559
▁multi	-2560
▁upon	-2561
▁cut	-2562
▁quant	-2563
▁China	-2564
▁Wash	-2565
▁tree	-2566
▁review	-2567
▁fig	-2568
▁impact	-2569
ivity	-2570
▁Mal	-2571
amm	-2572
▁earl	-2573
ederal	-2574
iff	-2575
▁week	-2576
▁multiple	-2577
rol	-2578
▁Sk	-2579
▁normal	-2580
▁wrote	-2581
ago	-2582
ift	-2583
▁style	-2584
igned	-2585
▁Council	-2586
▁designed	-2587
▁flow	-2588
plies	-2589
▁Great	-2590
▁months	-2591
ele	-2592
▁maintain	-2593
▁finite	-2594
itch	-2595
gress	-2596
atives	-2597
▁village	-2598
▁subs	-2599
pite	-2600
eds	-2601
▁pattern	-2602
anies	-2603
go	-2604
▁voc	-2605
▁constant	-2606
▁code	-2607
▁instead	-2608
▁neigh	-2609
▁introduced	-2610
▁lost	-2611
erous	-2612
uments	-2613
▁react	-2614
▁External	-2615
▁market	-2616
▁reported	-2617
▁match	-2618
▁Comput	-2619
▁positive	-2620
berg	-2621
▁central	-2622
▁Mart	-2623
▁Bi	-2624
▁Educ	-2625
▁President	-2626
ters	-2627
▁defe	-2628
▁targ	-2629
▁gre	-2630
▁studies	-2631
▁Law	-2632
▁Vir	-2633
▁Bay	-2634
uals	-2635
▁makes	-2636
▁property	-2637
rect	-2638
▁Championship	-2639
▁relationship	-2640
▁Nor	-2641
▁Academ	-2642
▁science	-2643
erve	-2644
▁ask	-2645
▁soft	-2646
ii	-2647
▁African	-2648
▁Scott	-2649
▁Proof	-2650
▁Street	-2651
▁course	-2652
▁Sl	-2653
roy	-2654
▁Party	-2655
▁Award	-2656
rab	-2657
▁transl	-2658
▁miss	-2659
craft	-2660
▁;	-2661
wise	-2662
▁Washington	-2663
▁Many	-2664
uit	-2665
▁prec	-2666
▁Mex	-2667
ension	-2668
▁sequence	-2669
▁satisf	-2670
▁white	-2671
▁Society	-2672
ament	-2673
▁ey	-2674
▁Royal	-2675
▁effic	-2676
▁opened	-2677
▁Dem	-2678
▁plants	-2679
equ	-2680
ician	-2681
▁rights	-2682
▁today	-2683
▁regard	-2684
asons	-2685
ellow	-2686
▁∆	-2687
▁returned	-2688
II	-2689
AR	-2690
abit	-2691
rup	-2692
▁Alex	-2693
▁effects	-2694
▁cannot	-2695
▁τ	-2696
▁Road	-2697
mar	-2698
▁hon	-2699
▁provides	-2700
▁evidence	-2701
▁done	-2702
▁Mat	-2703
▁mid	-2704
▁sam	-2705
▁Fre	-2706
▁Je	-2707
▁heart	-2708
atively	-2709
▁Music	-2710
inter	-2711
▁Vol	-2712
▁Center	-2713
elves	-2714
▁Institute	-2715
▁knowledge	-2716
tra	-2717
▁viol	-2718
▁Jos	-2719
▁mechan	-2720
▁Us	-2721
▁effort	-2722
▁hom	-2723
year	-2724
ners	-2725
pect	-2726
▁dou	-2727
In	-2728
hemat	-2729
▁System	-2730
▁Rail	-2731
met	-2732
▁star	-2733
fficient	-2734
▁followed	-2735
▁Hen	-2736
▁chall	-2737
ipp	-2738
▁assist	-2739
▁question	-2740
▁eval	-2741
▁numbers	-2742
▁remov	-2743
▁forces	-2744
uous	-2745
▁teac	-2746
wood	-2747
▁dig	-2748
▁Hall	-2749
▁Pre	-2750
aker	-2751
▁district	-2752
bed	-2753
▁accept	-2754
▁Japanese	-2755
asc	-2756
ctor	-2757
AT	-2758
▁Department	-2759
▁UK	-2760
iences	-2761
han	-2762
▁Book	-2763
▁involved	-2764
head	-2765
▁wid	-2766
▁map	-2767
▁activities	-2768
rial	-2769
▁lo	-2770
▁front	-2771
▁ten	-2772
▁mag	-2773
▁Division	-2774
▁force	-2775
▁Research	-2776
curity	-2777
▁appoint	-2778
▁brain	-2779
omorph	-2780
▁novel	-2781
▁distance	-2782
▁Int	-2783
hy	-2784
▁increased	-2785
ounter	-2786
▁physical	-2787
▁larger	-2788
▁performed	-2789
▁practice	-2790
▁true	-2791
cript	-2792
▁vict	-2793
oul	-2794
▁Western	-2795
▁technology	-2796
▁additional	-2797
▁big	-2798
▁generally	-2799
known	-2800
▁Prov	-2801
ils	-2802
omial	-2803
▁says	-2804
▁Journal	-2805
▁potential	-2806
▁District	-2807
itar	-2808
▁Don	-2809
▁exists	-2810
▁added	-2811
▁Robert	-2812
▁htt	-2813
▁taking	-2814
see	-2815
▁Health	-2816
▁ste	-2817
▁initial	-2818
sych	-2819
▁Up	-2820
▁List	-2821
right	-2822
rought	-2823
▁worked	-2824
▁unit	-2825
▁computer	-2826
▁Group	-2827
▁Note	-2828
▁appeared	-2829
▁park	-2830
▁award	-2831
▁leading	-2832
ump	-2833
▁himself	-2834
hold	-2835
rast	-2836
▁goal	-2837
▁announced	-2838
ises	-2839
▁Wil	-2840
▁increasing	-2841
▁Now	-2842
▁Mount	-2843
▁forms	-2844
▁feel	-2845
▁growth	-2846
aged	-2847
▁interp	-2848
istan	-2849
▁deep	-2850
anded	-2851
▁exact	-2852
▁recorded	-2853
▁closed	-2854
▁things	-2855
▁dat	-2856
▁forest	-2857
▁Rad	-2858
▁altern	-2859
▁east	-2860
▁Cong	-2861
▁produce	-2862
▁contract	-2863
▁block	-2864
▁prior	-2865
ingu	-2866
rim	-2867
▁super	-2868
▁sometimes	-2869
▁gra	-2870
▁Go	-2871
▁rule	-2872
inese	-2873
▁Ant	-2874
inct	-2875
isl	-2876
▁Year	-2877
iter	-2878
▁living	-2879
▁programs	-2880
▁Techn	-2881
nes	-2882
▁architect	-2883
▁link	-2884
ston	-2885
▁meaning	-2886
▁Sal	-2887
▁therefore	-2888
aint	-2889
▁Sam	-2890
▁Jack	-2891
▁radio	-2892
ranch	-2893
▁properties	-2894
use	-2895
▁equival	-2896
▁caused	-2897
▁investig	-2898
▁Di	-2899
▁output	-2900
▁except	-2901
used	-2902
▁travel	-2903
▁acqu	-2904
▁Central	-2905
▁activity	-2906
gebra	-2907
ES	-2908
▁Work	-2909
mon	-2910
▁mother	-2911
▁Mary	-2912
▁search	-2913
ida	-2914
▁movement	-2915
▁Michael	-2916
ricult	-2917
▁writing	-2918
▁Op	-2919
ux	-2920
bsite	-2921
▁try	-2922
onse	-2923
▁needed	-2924
▁Island	-2925
▁Tex	-2926
▁ut	-2927
▁center	-2928
umption	-2929
▁Mac	-2930
▁Ir	-2931
▁ρ	-2932
pri	-2933
▁interact	-2934
__	-2935
▁Day	-2936
▁thought	-2937
▁church	-2938
▁mount	-2939
▁Charles	-2940
alls	-2941
▁symb	-2942
▁Africa	-2943
bl	-2944
▁:=	-2945
▁TV	-2946
▁Catholic	-2947
▁stage	-2948
▁president	-2949
▁move	-2950
▁Spec	-2951
unity	-2952
▁products	-2953
▁release	-2954
iation	-2955
▁outside	-2956
▁Sing	-2957
▁Ann	-2958
▁student	-2959
▁Kingdom	-2960
oper	-2961
▁collect	-2962
raint	-2963
▁civil	-2964
writ	-2965
▁Court	-2966
itte	-2967
mark	-2968
▁Miss	-2969
▁emer	-2970
▁inj	-2971
aling	-2972
▁kind	-2973
▁experience	-2974
▁Che	-2975
▁Second	-2976
▁aud	-2977
▁check	-2978
▁bur	-2979
atin	-2980
▁idea	-2981
▁Company	-2982
▁obtained	-2983
▁west	-2984
▁color	-2985
▁Thomas	-2986
▁sil	-2987
▁needs	-2988
▁benef	-2989
▁pay	-2990
▁recent	-2991
▁active	-2992
ought	-2993
▁complet	-2994
isions	-2995
▁adj	-2996
▁brother	-2997
▁edge	-2998
▁books	-2999
▁variety	-3000
ste	-3001
ta	-3002
▁fight	-3003
▁issues	-3004
▁party	-3005
▁transfer	-3006
osis	-3007
▁laun	-3008
▁directly	-3009
enc	-3010
▁Green	-3011
▁Records	-3012
uth	-3013
▁Cap	-3014
▁respectively	-3015
...	-3016
▁longer	-3017
▁cast	-3018
▁nature	-3019
eed	-3020
▁constit	-3021
▁Ke	-3022
▁remains	-3023
▁Sun	-3024
EEE	-3025
ocr	-3026
▁companies	-3027
▁takes	-3028
▁variables	-3029
▁Chinese	-3030
▁global	-3031
ptoms	-3032
mselves	-3033
▁professional	-3034
alle	-3035
▁Ze	-3036
▁break	-3037
▁deaths	-3038
▁researc	-3039
▁whole	-3040
▁stop	-3041
▁Here	-3042
arr	-3043
astern	-3044
▁stri	-3045
▁founded	-3046
▁Our	-3047
▁themselves	-3048
pot	-3049
▁holds	-3050
▁quick	-3051
▁economic	-3052
▁Class	-3053
▁Cur	-3054
▁lack	-3055
▁pie	-3056
▁contain	-3057
▁Spanish	-3058
▁fav	-3059
anks	-3060
▁joined	-3061
▁generated	-3062
liam	-3063
▁networks	-3064
aign	-3065
▁ability	-3066
ya	-3067
▁Sen	-3068
▁king	-3069
▁Club	-3070
▁rev	-3071
▁subst	-3072
leg	-3073
▁Sub	-3074
▁IEEE	-3075
▁ever	-3076
ender	-3077
▁completed	-3078
▁Therefore	-3079
▁cou	-3080
▁Further	-3081
ening	-3082
▁Football	-3083
▁culture	-3084
antic	-3085
▁Under	-3086
▁eventually	-3087
▁rob	-3088
rd	-3089
aid	-3090
more	-3091
▁eight	-3092
isms	-3093
▁draw	-3094
etball	-3095
▁Sum	-3096
▁demonst	-3097
▁Dis	-3098
▁Louis	-3099
▁instit	-3100
▁vector	-3101
▁concern	-3102
ault	-3103
acters	-3104
▁memory	-3105
▁cancer	-3106
nel	-3107
▁veh	-3108
▁basis	-3109
▁behavior	-3110
▁univers	-3111
▁presented	-3112
iques	-3113
ibrary	-3114
izes	-3115
mod	-3116
▁immedi	-3117
▁location	-3118
▁administ	-3119
AC	-3120
▁cat	-3121
reland	-3122
lor	-3123
liament	-3124
▁traditional	-3125
▁dimens	-3126
ria	-3127
▁municip	-3128
org	-3129
▁accur	-3130
ensity	-3131
istry	-3132
▁lines	-3133
▁conv	-3134
▁φ	-3135
▁animals	-3136
ees	-3137
▁Two	-3138
▁answ	-3139
▁target	-3140
▁rules	-3141
▁optim	-3142
hest	-3143
▁coast	-3144
▁sets	-3145
▁vert	-3146
▁agre	-3147
▁`	-3148
▁article	-3149
▁necessary	-3150
▁Rob	-3151
▁hor	-3152
IS	-3153
eph	-3154
ips	-3155
▁Gold	-3156
▁primary	-3157
▁document	-3158
▁Bur	-3159
burg	-3160
▁jud	-3161
uated	-3162
unk	-3163
▁Mag	-3164
aughter	-3165
▁operations	-3166
▁private	-3167
gar	-3168
▁exc	-3169
▁limited	-3170
utive	-3171
▁tax	-3172
▁quality	-3173
▁ways	-3174
▁extrem	-3175
▁speed	-3176
▁commer	-3177
▁proced	-3178
▁Mont	-3179
iform	-3180
▁Dan	-3181
▁Best	-3182
group	-3183
ulate	-3184
▁going	-3185
▁error	-3186
▁Peter	-3187
▁ful	-3188
▁upper	-3189
eles	-3190
ufact	-3191
▁married	-3192
▁personal	-3193
▁gives	-3194
▁subsequ	-3195
▁Tor	-3196
▁policy	-3197
▁adop	-3198
▁night	-3199
▁allows	-3200
▁office	-3201
▁guitar	-3202
uman	-3203
▁beginning	-3204
▁equal	-3205
▁flu	-3206
irection	-3207
▁Richard	-3208
▁ang	-3209
▁Ter	-3210
▁Franc	-3211
▁AC	-3212
br	-3213
▁towards	-3214
alled	-3215
▁Del	-3216
▁management	-3217
▁units	-3218
▁depend	-3219
ki	-3220
ests	-3221
▁wood	-3222
▁director	-3223
▁hous	-3224
▁manufact	-3225
▁Form	-3226
ID	-3227
▁Ireland	-3228
▁define	-3229
▁images	-3230
▁Frank	-3231
▁gave	-3232
▁medical	-3233
▁decision	-3234
▁magn	-3235
▁Add	-3236
▁particularly	-3237
oming	-3238
▁nuc	-3239
otes	-3240
▁definition	-3241
inate	-3242
▁mess	-3243
vention	-3244
▁farm	-3245
▁Kar	-3246
▁reve	-3247
▁Museum	-3248
▁Education	-3249
▁mention	-3250
▁compared	-3251
▁reduce	-3252
▁industry	-3253
▁stations	-3254
▁Rem	-3255
▁connected	-3256
ss	-3257
▁resources	-3258
▁originally	-3259
▁Emp	-3260
▁Treat	-3261
▁pressure	-3262
▁factors	-3263
▁Over	-3264
▁unique	-3265
▁killed	-3266
▁response	-3267
▁Living	-3268
cles	-3269
▁Just	-3270
▁occup	-3271
▁gold	-3272
▁sense	-3273
▁Fore	-3274
bour	-3275
thing	-3276
▁Texas	-3277
itude	-3278
▁Kn	-3279
▁placed	-3280
▁allowed	-3281
▁actually	-3282
idents	-3283
▁Conference	-3284
rown	-3285
▁gas	-3286
▁analy	-3287
inger	-3288
▁Vict	-3289
oud	-3290
▁pen	-3291
▁leaders	-3292
▁race	-3293
▁replaced	-3294
ervation	-3295
▁ir	-3296
izations	-3297
▁transport	-3298
olf	-3299
▁something	-3300
mission	-3301
▁birth	-3302
ios	-3303
west	-3304
▁Mad	-3305
▁court	-3306
▁address	-3307
▁Its	-3308
▁remained	-3309
▁effective	-3310
ells	-3311
▁Greek	-3312
▁website	-3313
▁capital	-3314
edy	-3315
▁bird	-3316
▁Out	-3317
▁factor	-3318
--	-3319
▁characters	-3320
uted	-3321
▁teams	-3322
▁collection	-3323
▁Ben	-3324
▁songs	-3325
pir	-3326
▁why	-3327
▁behind	-3328
▁Leg	-3329
rael	-3330
▁capac	-3331
▁label	-3332
ka	-3333
▁playing	-3334
hi	-3335
▁media	-3336
▁threat	-3337
▁Turk	-3338
amer	-3339
lim	-3340
oles	-3341
▁seven	-3342
▁pages	-3343
▁schem	-3344
▁Histor	-3345
▁prote	-3346
▁brought	-3347
▁dynam	-3348
▁Tom	-3349
▁adult	-3350
ican	-3351
▁constraint	-3352
▁trade	-3353
▁corresponding	-3354
▁|-	-3355
▁sett	-3356
▁Pri	-3357
▁equip	-3358
▁simply	-3359
▁verte	-3360
▁controll	-3361
otic	-3362
oring	-3363
▁issue	-3364
aled	-3365
▁saw	-3366
▁Prof	-3367
▁smaller	-3368
▁Mass	-3369
uz	-3370
▁applied	-3371
▁temperature	-3372
▁Flor	-3373
▁colon	-3374
▁Public	-3375
▁running	-3376
▁write	-3377
ario	-3378
▁Italian	-3379
▁sus	-3380
▁wife	-3381
▁structures	-3382
▁sex	-3383
▁fram	-3384
▁currently	-3385
▁Academy	-3386
▁league	-3387
ittee	-3388
▁avoid	-3389
▁eth	-3390
▁tour	-3391
▁symptoms	-3392
ota	-3393
▁Sov	-3394
▁drop	-3395
▁trees	-3396
▁Also	-3397
▁reading	-3398
▁climate	-3399
▁Smith	-3400
▁drug	-3401
change	-3402
▁spl	-3403
itation	-3404
▁election	-3405
aters	-3406
▁Russian	-3407
▁prove	-3408
▁individuals	-3409
ging	-3410
▁Sol	-3411
▁Er	-3412
AM	-3413
oo	-3414
ronic	-3415
▁autom	-3416
▁sea	-3417
▁job	-3418
▁Spr	-3419
amin	-3420
tr	-3421
▁CO	-3422
fect	-3423
▁Play	-3424
▁becomes	-3425
▁sch	-3426
▁correct	-3427
aging	-3428
Ch	-3429
▁comes	-3430
ares	-3431
crete	-3432
▁sources	-3433
▁objects	-3434
▁feed	-3435
AN	-3436
▁online	-3437
▁river	-3438
▁earlier	-3439
▁medic	-3440
▁instance	-3441
▁Virgin	-3442
▁rat	-3443
▁rap	-3444
▁Each	-3445
▁directed	-3446
ether	-3447
▁remain	-3448
▁Kore	-3449
▁Bill	-3450
▁Ty	-3451
reng	-3452
raction	-3453
▁money	-3454
▁print	-3455
▁materials	-3456
ying	-3457
acc	-3458
▁etc	-3459
▁Mel	-3460
▁ring	-3461
▁coach	-3462
▁	-3463
igen	-3464
▁greater	-3465
▁protect	-3466
▁Sur	-3467
azine	-3468
▁applications	-3469
ishop	-3470
▁surround	-3471
▁ast	-3472
▁basic	-3473
▁instr	-3474
uge	-3475
▁cle	-3476
ala	-3477
▁wide	-3478
▁experim	-3479
▁hours	-3480
▁White	-3481
▁researchers	-3482
▁Columb	-3483
▁micro	-3484
▁Proposition	-3485
▁Brown	-3486
ockey	-3487
▁hit	-3488
▁Early	-3489
cean	-3490
ocks	-3491
▁yet	-3492
▁BC	-3493
ona	-3494
ao	-3495
▁soon	-3496
▁Rel	-3497
▁territ	-3498
ecause	-3499
▁changed	-3500
▁previously	-3501
▁Den	-3502
▁Atl	-3503
▁belong	-3504
▁box	-3505
▁Grand	-3506
▁decre	-3507
▁cand	-3508
▁destroy	-3509
▁maximum	-3510
▁concent	-3511
▁Chic	-3512
▁Rock	-3513
▁sun	-3514
▁Carol	-3515
▁phil	-3516
▁stra	-3517
▁signed	-3518
xi	-3519
uate	-3520
▁Henry	-3521
▁oil	-3522
▁episode	-3523
▁poor	-3524
▁enter	-3525
▁ancient	-3526
ework	-3527
orial	-3528
unt	-3529
▁approximately	-3530
▁Lake	-3531
olk	-3532
▁hyd	-3533
▁illust	-3534
▁fixed	-3535
▁ϕ	-3536
▁buildings	-3537
oma	-3538
thlet	-3539
▁questions	-3540
atre	-3541
▁Gra	-3542
▁assume	-3543
▁journal	-3544
▁face	-3545
▁Child	-3546
ellig	-3547
▁expected	-3548
▁predict	-3549
▁northern	-3550
uff	-3551
ola	-3552
▁Ham	-3553
ospital	-3554
▁Cy	-3555
aland	-3556
roll	-3557
oke	-3558
itiz	-3559
="	-3560
▁appears	-3561
▁Scot	-3562
▁green	-3563
unction	-3564
▁cust	-3565
▁cred	-3566
mitted	-3567
osen	-3568
▁reb	-3569
▁poll	-3570
▁ice	-3571
▁Another	-3572
▁Fin	-3573
▁algorithms	-3574
▁places	-3575
▁influence	-3576
▁ball	-3577
▁channel	-3578
▁operation	-3579
▁application	-3580
▁page	-3581
ancial	-3582
▁reduced	-3583
▁Government	-3584
isation	-3585
▁spread	-3586
▁carbon	-3587
oral	-3588
▁campaign	-3589
▁names	-3590
▁Israel	-3591
▁chemical	-3592
▁typically	-3593
light	-3594
ato	-3595
aily	-3596
▁inside	-3597
olec	-3598
▁appointed	-3599
▁examples	-3600
ani	-3601
▁direction	-3602
▁prop	-3603
▁ord	-3604
▁southern	-3605
▁mix	-3606
orpor	-3607
irm	-3608
▁compar	-3609
log	-3610
▁Program	-3611
ado	-3612
▁setting	-3613
asion	-3614
atur	-3615
porary	-3616
oice	-3617
▁reached	-3618
▁Old	-3619
utch	-3620
▁column	-3621
ned	-3622
acing	-3623
road	-3624
▁variable	-3625
▁board	-3626
▁understanding	-3627
oura	-3628
▁opport	-3629
▁Soviet	-3630
ano	-3631
▁denote	-3632
elled	-3633
ini	-3634
▁battle	-3635
airs	-3636
▁ox	-3637
▁clust	-3638
▁electric	-3639
▁island	-3640
▁contact	-3641
▁consists	-3642
▁attention	-3643
▁lands	-3644
enced	-3645
▁context	-3646
▁bal	-3647
gl	-3648
▁Ret	-3649
▁highly	-3650
▁sports	-3651
▁identify	-3652
▁Elect	-3653
▁ideal	-3654
▁Northern	-3655
ilies	-3656
▁resist	-3657
▁joint	-3658
▁parents	-3659
itors	-3660
rice	-3661
▁Prot	-3662
ech	-3663
▁signal	-3664
▁Mo	-3665
▁adapt	-3666
SI	-3667
▁Σ	-3668
▁Found	-3669
▁⊆	-3670
▁Are	-3671
▁difference	-3672
▁languages	-3673
▁Cast	-3674
▁machine	-3675
entially	-3676
▁highest	-3677
▁dram	-3678
▁soil	-3679
win	-3680
▁III	-3681
uries	-3682
fort	-3683
za	-3684
▁Congress	-3685
▁Victor	-3686
▁skills	-3687
▁summer	-3688
Th	-3689
▁polyn	-3690
▁stated	-3691
▁Service	-3692
ny	-3693
level	-3694
▁deal	-3695
▁Vi	-3696
▁Hy	-3697
▁purch	-3698
▁Sym	-3699
anta	-3700
▁Life	-3701
▁sal	-3702
▁("	-3703
▁separate	-3704
▁Camb	-3705
▁easily	-3706
▁streng	-3707
estival	-3708
▁aircraft	-3709
▁ec	-3710
▁Step	-3711
▁screen	-3712
embly	-3713
▁hot	-3714
lo	-3715
▁referred	-3716
▁Town	-3717
▁η	-3718
▁elected	-3719
▁broadcast	-3720
▁Follow	-3721
nce	-3722
rief	-3723
▁bring	-3724
▁share	-3725
adium	-3726
▁esc	-3727
▁society	-3728
verse	-3729
anced	-3730
▁female	-3731
▁Los	-3732
▁Bas	-3733
====	-3734
▁techniques	-3735
▁Stat	-3736
▁recomm	-3737
umni	-3738
▁nut	-3739
▁Chicago	-3740
▁row	-3741
▁recover	-3742
▁note	-3743
▁overall	-3744
▁Direct	-3745
▁resulting	-3746
▁Penn	-3747
▁Mur	-3748
▁arm	-3749
arter	-3750
eks	-3751
▁rul	-3752
▁Camp	-3753
hesis	-3754
▁Off	-3755
▁sample	-3756
▁pict	-3757
▁node	-3758
▁components	-3759
▁improve	-3760
▁express	-3761
vement	-3762
▁minor	-3763
▁spect	-3764
onic	-3765
▁reach	-3766
▁Mer	-3767
▁commercial	-3768
▁heat	-3769
▁Because	-3770
▁Mil	-3771
▁religious	-3772
▁beg	-3773
▁Empire	-3774
IN	-3775
▁pack	-3776
▁∩	-3777
ky	-3778
▁runs	-3779
FL	-3780
▁software	-3781
▁bank	-3782
▁Oper	-3783
▁trib	-3784
ams	-3785
▁Lear	-3786
▁Their	-3787
ounds	-3788
irit	-3789
▁Mexico	-3790
▁optimal	-3791
▁continue	-3792
▁qual	-3793
den	-3794
▁Of	-3795
with	-3796
board	-3797
▁aim	-3798
umed	-3799
IC	-3800
▁capacity	-3801
▁cele	-3802
point	-3803
▁mind	-3804
elt	-3805
▁Zealand	-3806
▁fit	-3807
▁causes	-3808
▁date	-3809
▁majority	-3810
▁decided	-3811
▁programming	-3812
hens	-3813
▁matter	-3814
▁patients	-3815
▁Ev	-3816
▁table	-3817
▁card	-3818
▁repe	-3819
▁nearly	-3820
▁Jewish	-3821
▁ult	-3822
▁Games	-3823
▁classes	-3824
▁daughter	-3825
▁ded	-3826
▁albums	-3827
aval	-3828
omy	-3829
▁Mr	-3830
▁parameters	-3831
▁Lu	-3832
▁carry	-3833
▁http	-3834
▁supported	-3835
cher	-3836
raw	-3837
undred	-3838
▁Paris	-3839
ocal	-3840
▁fish	-3841
▁zero	-3842
▁()	-3843
▁easy	-3844
▁Sir	-3845
ON	-3846
▁army	-3847
IT	-3848
▁Super	-3849
▁Av	-3850
▁fast	-3851
▁determine	-3852
▁Arab	-3853
▁limit	-3854
rical	-3855
▁regions	-3856
OR	-3857
▁lot	-3858
▁extended	-3859
▁content	-3860
ait	-3861
ST	-3862
▁tre	-3863
rices	-3864
▁accom	-3865
▁middle	-3866
▁anti	-3867
well	-3868
▁train	-3869
▁Gre	-3870
aught	-3871
▁Squ	-3872
usion	-3873
▁slow	-3874
▁Engine	-3875
▁seg	-3876
▁Social	-3877
▁Minister	-3878
allel	-3879
▁Italy	-3880
▁psych	-3881
▁quickly	-3882
lam	-3883
bre	-3884
▁Fort	-3885
▁Hill	-3886
▁academ	-3887
▁user	-3888
anned	-3889
Americ	-3890
▁damage	-3891
▁distinct	-3892
▁discovered	-3893
▁und	-3894
▁CD	-3895
▁represented	-3896
▁staff	-3897
▁command	-3898
▁selected	-3899
▁lif	-3900
TV	-3901
▁nation	-3902
▁conclud	-3903
▁debut	-3904
leep	-3905
▁noted	-3906
▁commonly	-3907
▁task	-3908
▁Ill	-3909
▁communities	-3910
▁exhib	-3911
ube	-3912
▁month	-3913
▁equivalent	-3914
▁news	-3915
▁prison	-3916
▁deliver	-3917
▁agricult	-3918
osoph	-3919
▁critical	-3920
▁transform	-3921
▁mut	-3922
ously	-3923
▁schol	-3924
▁requires	-3925
ada	-3926
▁settle	-3927
atform	-3928
▁edges	-3929
ena	-3930
")	-3931
▁estimated	-3932
▁mission	-3933
encies	-3934
▁nodes	-3935
▁Olympics	-3936
align	-3937
▁nom	-3938
▁Mill	-3939
▁Sports	-3940
▁index	-3941
▁Force	-3942
ding	-3943
▁leader	-3944
▁observed	-3945
▁college	-3946
▁latter	-3947
▁Britain	-3948
ancy	-3949
overs	-3950
▁literature	-3951
▁starting	-3952
▁scientists	-3953
band	-3954
▁processes	-3955
▁assess	-3956
▁bask	-3957
anguage	-3958
▁communication	-3959
▁upd	-3960
▁poly	-3961
▁Song	-3962
▁coord	-3963
▁Florida	-3964
illed	-3965
▁legal	-3966
owers	-3967
▁challeng	-3968
li	-3969
▁mostly	-3970
▁organization	-3971
▁polynomial	-3972
▁Hel	-3973
▁route	-3974
▁featured	-3975
iency	-3976
▁numerous	-3977
▁Pac	-3978
▁choice	-3979
▁Regulations	-3980
▁Mars	-3981
▁lives	-3982
▁vertex	-3983
▁Develop	-3984
▁consequ	-3985
▁politician	-3986
▁critic	-3987
▁status	-3988
▁Ol	-3989
▁Land	-3990
▁Pet	-3991
▁negative	-3992
ectors	-3993
▁studied	-3994
▁Const	-3995
enth	-3996
▁Inst	-3997
▁Du	-3998
▁Pan	-3999
▁candid	-4000
book	-4001
ban	-4002
▁earth	-4003
▁bacter	-4004
▁implies	-4005
urban	-4006
▁Commission	-4007
▁har	-4008
▁Swed	-4009
▁minutes	-4010
▁skin	-4011
▁Po	-4012
▁Inf	-4013
igr	-4014
▁algebra	-4015
▁stay	-4016
ested	-4017
▁scen	-4018
▁probably	-4019
odies	-4020
▁love	-4021
bur	-4022
endment	-4023
▁thous	-4024
oration	-4025
bi	-4026
▁Water	-4027
▁Mos	-4028
▁stru	-4029
▁finished	-4030
▁believed	-4031
vin	-4032
▁sn	-4033
▁presence	-4034
itt	-4035
▁Ma	-4036
▁mom	-4037
stein	-4038
▁weeks	-4039
▁fully	-4040
▁laws	-4041
▁Pop	-4042
▁Bul	-4043
▁establishments	-4044
part	-4045
ersey	-4046
▁confl	-4047
ensus	-4048
▁bit	-4049
▁Both	-4050
▁origin	-4051
▁carried	-4052
▁inn	-4053
ibly	-4054
▁Li	-4055
▁ε	-4056
▁Kh	-4057
▁environmental	-4058
CC	-4059
▁efficient	-4060
ogen	-4061
▁fif	-4062
▁federal	-4063
▁families	-4064
▁attract	-4065
▁neighbor	-4066
▁writer	-4067
▁passed	-4068
gypt	-4069
work	-4070
▁Joseph	-4071
▁humans	-4072
▁continuous	-4073
agon	-4074
▁layer	-4075
▁seem	-4076
▁Martin	-4077
▁affect	-4078
ken	-4079
▁Civil	-4080
▁√	-4081
▁Inc	-4082
room	-4083
▁Following	-4084
▁∪	-4085
▁select	-4086
▁growing	-4087
▁useful	-4088
▁Film	-4089
▁Table	-4090
▁diss	-4091
▁animal	-4092
▁exerc	-4093
▁remaining	-4094
house	-4095
▁security	-4096
▁appropri	-4097
▁uniform	-4098
▁shape	-4099
▁Georg	-4100
zil	-4101
rupt	-4102
▁Det	-4103
ds	-4104
▁Tod	-4105
▁scale	-4106
▁Network	-4107
▁relatively	-4108
▁visual	-4109
▁reference	-4110
rong	-4111
gn	-4112
▁Gal	-4113
arden	-4114
▁du	-4115
▁Asia	-4116
▁Virginia	-4117
ributions	-4118
▁bott	-4119
▁rot	-4120
▁cities	-4121
isher	-4122
▁Ver	-4123
vert	-4124
▁sen	-4125
▁Profess	-4126
stra	-4127
▁descript	-4128
umber	-4129
▁ideas	-4130
▁responsible	-4131
ception	-4132
▁serious	-4133
clusion	-4134
abet	-4135
▁girl	-4136
▁occurs	-4137
ternet	-4138
▁lived	-4139
▁friend	-4140
▁becoming	-4141
▁situation	-4142
▁habit	-4143
▁walk	-4144
▁domain	-4145
▁wor	-4146
▁medal	-4147
osing	-4148
▁acid	-4149
heast	-4150
▁Battle	-4151
▁fourth	-4152
▁Sil	-4153
ita	-4154
NN	-4155
▁Egypt	-4156
itable	-4157
▁union	-4158
▁foreign	-4159
▁Ox	-4160
▁citiz	-4161
▁really	-4162
km	-4163
▁Fam	-4164
▁hyper	-4165
▁actions	-4166
▁representation	-4167
▁Fe	-4168
▁diagn	-4169
▁corn	-4170
▁virus	-4171
▁artists	-4172
▁foot	-4173
▁police	-4174
▁Latin	-4175
▁heavy	-4176
force	-4177
▁Conf	-4178
igan	-4179
▁Southern	-4180
▁sites	-4181
▁identified	-4182
▁replace	-4183
▁apply	-4184
▁harm	-4185
▁double	-4186
▁Mem	-4187
▁Irish	-4188
▁∂	-4189
pan	-4190
▁Pak	-4191
▁contrast	-4192
set	-4193
▁talk	-4194
▁grant	-4195
ias	-4196
sec	-4197
SA	-4198
▁USA	-4199
▁purpose	-4200
▁⊗	-4201
▁concer	-4202
▁rare	-4203
▁progress	-4204
akers	-4205
▁competition	-4206
▁Wood	-4207
▁historical	-4208
▁figure	-4209
▁Women	-4210
▁Olympic	-4211
▁Gen	-4212
▁Middle	-4213
▁Jer	-4214
▁dead	-4215
obile	-4216
omer	-4217
▁Big	-4218
▁subgroup	-4219
▁scientific	-4220
itan	-4221
▁Hon	-4222
▁Hence	-4223
▁dark	-4224
▁wild	-4225
▁molec	-4226
▁split	-4227
▁friends	-4228
ev	-4229
▁Cat	-4230
where	-4231
▁phase	-4232
rier	-4233
▁whom	-4234
▁prem	-4235
▁gun	-4236
▁famous	-4237
▁Saint	-4238
ua	-4239
▁hundred	-4240
▁leaves	-4241
▁minim	-4242
▁load	-4243
▁display	-4244
ishes	-4245
add	-4246
▁sec	-4247
▁counter	-4248
▁labor	-4249
hors	-4250
▁hypot	-4251
▁blue	-4252
SP	-4253
rogen	-4254
▁parameter	-4255
▁sure	-4256
▁Angeles	-4257
▁Railway	-4258
▁mentioned	-4259
▁existing	-4260
EC	-4261
▁western	-4262
▁Ten	-4263
otion	-4264
▁Jim	-4265
estic	-4266
iance	-4267
▁musical	-4268
▁developing	-4269
▁stress	-4270
▁yield	-4271
▁Bus	-4272
▁Spe	-4273
▁recently	-4274
▁evolution	-4275
▁Bob	-4276
col	-4277
▁Using	-4278
▁rapid	-4279
▁basketball	-4280
uration	-4281
▁financial	-4282
▁Star	-4283
▁component	-4284
la	-4285
▁∼	-4286
▁vocals	-4287
Am	-4288
▁expression	-4289
wide	-4290
▁woman	-4291
apers	-4292
hat	-4293
▁Haw	-4294
▁cultural	-4295
▁Parliament	-4296
▁store	-4297
ulf	-4298
▁supply	-4299
▁advant	-4300
▁grand	-4301
edom	-4302
▁widely	-4303
▁Bow	-4304
▁Human	-4305
ategory	-4306
www	-4307
▁mainly	-4308
▁pan	-4309
▁slight	-4310
▁Dou	-4311
stitution	-4312
▁ones	-4313
ady	-4314
▁Long	-4315
▁sufficient	-4316
▁forced	-4317
▁News	-4318
▁appearance	-4319
▁Ro	-4320
▁quite	-4321
▁immediately	-4322
▁division	-4323
▁virt	-4324
▁Offic	-4325
▁Top	-4326
▁platform	-4327
▁Common	-4328
▁completely	-4329
ifically	-4330
▁newsp	-4331
▁Liber	-4332
An	-4333
▁manager	-4334
▁Bre	-4335
ette	-4336
American	-4337
▁room	-4338
▁ensure	-4339
▁∞	-4340
▁Fer	-4341
▁brief	-4342
▁mur	-4343
▁ψ	-4344
▁Dutch	-4345
▁Time	-4346
▁Men	-4347
▁goals	-4348
▁testing	-4349
▁steps	-4350
▁expect	-4351
▁framework	-4352
▁Care	-4353
apter	-4354
inite	-4355
▁constructed	-4356
▁singer	-4357
▁Cro	-4358
▁Organ	-4359
▁Columbia	-4360
▁cru	-4361
▁strateg	-4362
▁Spain	-4363
cel	-4364
▁vertices	-4365
▁ple	-4366
▁Even	-4367
water	-4368
▁iter	-4369
▁Moreover	-4370
▁prep	-4371
▁Later	-4372
▁leave	-4373
osa	-4374
▁Tim	-4375
▁secret	-4376
▁spent	-4377
▁fa	-4378
▁rain	-4379
▁bridge	-4380
▁susp	-4381
ylvan	-4382
va	-4383
venue	-4384
▁showed	-4385
▁Finally	-4386
gence	-4387
▁fru	-4388
▁safety	-4389
▁feet	-4390
▁pick	-4391
▁mill	-4392
▁Information	-4393
▁Eastern	-4394
▁Lord	-4395
iring	-4396
▁metal	-4397
▁Max	-4398
▁Russia	-4399
▁awarded	-4400
▁Univers	-4401
▁*	-4402
vant	-4403
▁moving	-4404
▁removed	-4405
arent	-4406
BA	-4407
▁Brazil	-4408
▁tend	-4409
gr	-4410
EN	-4411
▁actor	-4412
rapy	-4413
▁Main	-4414
▁Base	-4415
▁inh	-4416
ansion	-4417
▁covered	-4418
▁theorem	-4419
▁else	-4420
▁cycle	-4421
▁native	-4422
plicit	-4423
press	-4424
▁annual	-4425
enge	-4426
▁Jes	-4427
▁inters	-4428
▁charg	-4429
▁arrang	-4430
▁Jo	-4431
uls	-4432
▁chosen	-4433
omic	-4434
▁incorpor	-4435
uing	-4436
rum	-4437
▁volume	-4438
▁density	-4439
▁Lab	-4440
ceedings	-4441
▁procedure	-4442
ras	-4443
▁Sea	-4444
▁Post	-4445
▁relative	-4446
icians	-4447
state	-4448
▁Series	-4449
▁extra	-4450
▁rates	-4451
▁Your	-4452
▁Oh	-4453
▁listed	-4454
▁Writ	-4455
ologist	-4456
▁tradition	-4457
iger	-4458
ava	-4459
▁ended	-4460
▁square	-4461
▁Line	-4462
ifying	-4463
▁reflect	-4464
▁finally	-4465
▁collabor	-4466
▁IS	-4467
▁centre	-4468
▁Budd	-4469
▁alumni	-4470
▁Wind	-4471
rich	-4472
▁got	-4473
ession	-4474
ading	-4475
▁Good	-4476
▁distributed	-4477
range	-4478
▁Despite	-4479
▁older	-4480
▁containing	-4481
ocratic	-4482
▁insp	-4483
▁miles	-4484
▁stream	-4485
▁samples	-4486
▁writers	-4487
▁believe	-4488
icated	-4489
▁actress	-4490
oty	-4491
▁parallel	-4492
▁uns	-4493
rient	-4494
BS	-4495
▁Plan	-4496
▁edition	-4497
▁emb	-4498
▁Jersey	-4499
uty	-4500
urning	-4501
PS	-4502
▁Ω	-4503
▁workers	-4504
▁Pacific	-4505
riz	-4506
▁poet	-4507
▁dog	-4508
▁inequ	-4509
▁determined	-4510
▁Lee	-4511
▁divided	-4512
which	-4513
kins	-4514
▁chart	-4515
▁score	-4516
▁derived	-4517
▁Build	-4518
edia	-4519
▁))	-4520
load	-4521
ittle	-4522
▁Love	-4523
▁bra	-4524
print	-4525
▁...	-4526
olved	-4527
▁border	-4528
▁assign	-4529
▁railway	-4530
▁bad	-4531
▁Scotland	-4532
▁chief	-4533
life	-4534
▁fields	-4535
aly	-4536
▁lic	-4537
ugby	-4538
▁ν	-4539
▁Awards	-4540
▁legisl	-4541
down	-4542
ura	-4543
▁	-4544
▁Wales	-4545
hematics	-4546
▁connect	-4547
eget	-4548
itely	-4549
▁forward	-4550
▁Radio	-4551
riage	-4552
▁tim	-4553
iant	-4554
mosp	-4555
▁interpret	-4556
▁providing	-4557
can	-4558
stract	-4559
haps	-4560
resh	-4561
illa	-4562
uan	-4563
▁records	-4564
▁equipment	-4565
▁Major	-4566
mann	-4567
▁shot	-4568
▁Pakistan	-4569
▁Scottish	-4570
▁Mah	-4571
▁Definition	-4572
▁Su	-4573
▁agent	-4574
▁Arts	-4575
▁opening	-4576
nam	-4577
▁AD	-4578
▁Carl	-4579
▁Times	-4580
▁Carolina	-4581
oding	-4582
▁datas	-4583
ella	-4584
place	-4585
▁Phys	-4586
poses	-4587
▁asked	-4588
▁details	-4589
▁choose	-4590
▁survey	-4591
▁fort	-4592
▁answer	-4593
▁minimum	-4594
imensional	-4595
enty	-4596
▁Disc	-4597
king	-4598
▁Valley	-4599
ylvania	-4600
▁inform	-4601
▁Algorith	-4602
▁combined	-4603
▁Tem	-4604
▁Albert	-4605
▁efforts	-4606
▁unknown	-4607
▁classical	-4608
▁Jud	-4609
▁tests	-4610
no	-4611
ologies	-4612
▁	-4613
▁told	-4614
▁commit	-4615
▁fle	-4616
▁Φ	-4617
▁branch	-4618
▁turned	-4619
▁defeated	-4620
▁Jac	-4621
▁winning	-4622
▁essential	-4623
▁primarily	-4624
het	-4625
▁hence	-4626
▁shall	-4627
▁batt	-4628
▁	-4629
aby	-4630
▁plans	-4631
▁generation	-4632
▁Ep	-4633
rane	-4634
▁Computer	-4635
▁eye	-4636
▁technique	-4637
▁Math	-4638
war	-4639
▁solar	-4640
▁experiment	-4641
ef	-4642
▁Pers	-4643
▁Development	-4644
abil	-4645
▁​	-4646
MS	-4647
vest	-4648
▁letter	-4649
elligence	-4650
▁Tw	-4651
▁Portug	-4652
RA	-4653
▁valid	-4654
▁Bern	-4655
▁Person	-4656
▁tourn	-4657
▁leaving	-4658
▁initially	-4659
▁tools	-4660
orders	-4661
ographic	-4662
▁measures	-4663
▁Sar	-4664
▁producer	-4665
ferences	-4666
▁bul	-4667
arrow	-4668
▁behavi	-4669
abilities	-4670
cks	-4671
▁!	-4672
▁troops	-4673
▁Committee	-4674
▁offered	-4675
pling	-4676
▁ago	-4677
rence	-4678
▁alternative	-4679
omorphism	-4680
arant	-4681
▁McC	-4682
▁Power	-4683
▁SI	-4684
▁complexity	-4685
▁combination	-4686
aud	-4687
▁warm	-4688
▁weak	-4689
agement	-4690
gent	-4691
▁heav	-4692
▁pil	-4693
▁protection	-4694
▁	-4695
▁Young	-4696
▁selection	-4697
▁giving	-4698
ipal	-4699
▁hands	-4700
auss	-4701
▁drum	-4702
oston	-4703
▁otherwise	-4704
▁championship	-4705
▁artist	-4706
▁frequency	-4707
ategor	-4708
▁Rout	-4709
▁relation	-4710
▁diet	-4711
▁Jun	-4712
▁importance	-4713
▁owned	-4714
▁Four	-4715
▁doing	-4716
▁scheme	-4717
▁fat	-4718
▁teacher	-4719
▁daily	-4720
▁nuclear	-4721
plications	-4722
OS	-4723
▁bey	-4724
▁Conn	-4725
▁significantly	-4726
▁mis	-4727
▁Cross	-4728
▁clean	-4729
▁ℓ	-4730
adel	-4731
▁Technology	-4732
anda	-4733
term	-4734
rey	-4735
onn	-4736
roph	-4737
▁Polit	-4738
▁ω	-4739
▁sust	-4740
▁serve	-4741
ns	-4742
▁helped	-4743
▁beyond	-4744
reme	-4745
▁	-4746
▁users	-4747
▁Edward	-4748
▁Ak	-4749
▁teaching	-4750
rog	-4751
▁strate	-4752
ansas	-4753
▁achieve	-4754
▁stories	-4755
▁strategy	-4756
▁⊂	-4757
ela	-4758
rics	-4759
▁Matt	-4760
▁Tour	-4761
▁projects	-4762
iana	-4763
▁rise	-4764
urt	-4765
▁compil	-4766
▁doctor	-4767
▁seems	-4768
▁Americans	-4769
wer	-4770
▁dang	-4771
▁patterns	-4772
orage	-4773
▁increases	-4774
▁ran	-4775
▁Stand	-4776
aks	-4777
▁lat	-4778
▁footballer	-4779
fully	-4780
▁devices	-4781
▁formal	-4782
inant	-4783
▁describe	-4784
▁Alexander	-4785
▁thr	-4786
▁DNA	-4787
▁birds	-4788
▁despite	-4789
▁elim	-4790
▁eastern	-4791
▁industrial	-4792
ati	-4793
▁Ob	-4794
▁fair	-4795
▁differences	-4796
▁Summer	-4797
▁device	-4798
▁Cr	-4799
inet	-4800
▁dry	-4801
▁creating	-4802
▁identity	-4803
▁Penns	-4804
sen	-4805
▁Secret	-4806
rec	-4807
emporary	-4808
mond	-4809
▁winter	-4810
▁goes	-4811
▁Once	-4812
azz	-4813
▁digital	-4814
▁Coll	-4815
▁magazine	-4816
▁synt	-4817
come	-4818
iest	-4819
▁Bal	-4820
erved	-4821
peror	-4822
▁Jul	-4823
isco	-4824
▁architecture	-4825
FA	-4826
▁Cult	-4827
pers	-4828
We	-4829
cont	-4830
▁enj	-4831
▁statement	-4832
▁Navy	-4833
PA	-4834
▁receive	-4835
▁solutions	-4836
▁processing	-4837
▁powerful	-4838
▁Zh	-4839
▁vary	-4840
▁noise	-4841
▁composed	-4842
▁pet	-4843
▁Bank	-4844
iano	-4845
▁Boston	-4846
▁teachers	-4847
▁appropriate	-4848
. 	-4849
▁conducted	-4850
related	-4851
har	-4852
▁hol	-4853
mas	-4854
▁economy	-4855
rip	-4856
▁veget	-4857
▁Cambridge	-4858
▁exactly	-4859
▁\	-4860
▁Islam	-4861
resents	-4862
▁Mid	-4863
▁motor	-4864
▁extension	-4865
▁format	-4866
aped	-4867
ng	-4868
▁fuel	-4869
▁Hot	-4870
▁expos	-4871
▁sleep	-4872
▁formation	-4873
▁encoura	-4874
apping	-4875
▁Mult	-4876
▁align	-4877
▁interview	-4878
▁comment	-4879
▁straight	-4880
▁suc	-4881
▁nine	-4882
▁authors	-4883
▁Pennsylvania	-4884
osaur	-4885
▁tiss	-4886
comp	-4887
▁intended	-4888
▁Board	-4889
▁Three	-4890
igation	-4891
oting	-4892
MA	-4893
▁symbol	-4894
▁dimension	-4895
▁failed	-4896
umer	-4897
▁protein	-4898
▁municipality	-4899
▁contained	-4900
ariance	-4901
▁background	-4902
▁Id	-4903
▁Consider	-4904
erman	-4905
IV	-4906
▁cry	-4907
▁Blue	-4908
▁Queen	-4909
nic	-4910
▁represents	-4911
▁meeting	-4912
duction	-4913
kin	-4914
isters	-4915
▁Econom	-4916
▁leads	-4917
▁internal	-4918
▁ven	-4919
▁bass	-4920
▁atmosp	-4921
etts	-4922
▁achieved	-4923
▁crop	-4924
▁entered	-4925
iny	-4926
▁urban	-4927
miss	-4928
asks	-4929
ooth	-4930
vis	-4931
▁Broad	-4932
▁claimed	-4933
▁favor	-4934
▁plays	-4935
▁distingu	-4936
▁experiments	-4937
▁helps	-4938
▁Iran	-4939
▁raised	-4940
▁	-4941
▁demand	-4942
▁bounded	-4943
▁Proceedings	-4944
▁rang	-4945
class	-4946
cop	-4947
▁stars	-4948
▁soldiers	-4949
▁Lim	-4950
▁victory	-4951
▁implementation	-4952
▁god	-4953
▁Similar	-4954
▁affected	-4955
▁allowing	-4956
icks	-4957
▁peace	-4958
pes	-4959
▁Ele	-4960
tical	-4961
▁planet	-4962
▁celeb	-4963
▁reasons	-4964
▁Est	-4965
▁Dom	-4966
▁launched	-4967
iy	-4968
▁Az	-4969
coh	-4970
▁moment	-4971
▁Foundation	-4972
▁arbit	-4973
▁operated	-4974
phas	-4975
▁Special	-4976
▁healthy	-4977
▁motion	-4978
▁Project	-4979
awa	-4980
▁neural	-4981
▁aware	-4982
▁web	-4983
▁Children	-4984
▁organizations	-4985
▁operating	-4986
▁equation	-4987
▁chain	-4988
▁seasons	-4989
iples	-4990
▁Kent	-4991
dust	-4992
aka	-4993
orning	-4994
heim	-4995
▁piece	-4996
▁recognition	-4997
ribute	-4998
▁Dar	-4999
▁dial	-5000
ET	-5001
▁Back	-5002
▁Library	-5003
▁charge	-5004
▁master	-5005
▁restrict	-5006
▁coming	-5007
▁Mu	-5008
▁promin	-5009
▁spirit	-5010
dimensional	-5011
▁succeed	-5012
ED	-5013
▁degrees	-5014
icted	-5015
▁offers	-5016
▁pal	-5017
▁Jan	-5018
▁Ul	-5019
▁Andrew	-5020
▁actual	-5021
▁~	-5022
▁looking	-5023
▁billion	-5024
▁voice	-5025
▁Learning	-5026
▁cool	-5027
▁infl	-5028
▁weap	-5029
▁Through	-5030
▁citizens	-5031
▁Jeff	-5032
▁wanted	-5033
eline	-5034
▁Gi	-5035
▁End	-5036
▁Orig	-5037
▁Ca	-5038
▁largely	-5039
▁Control	-5040
▁continues	-5041
ón	-5042
ructure	-5043
tters	-5044
inations	-5045
▁Jews	-5046
▁gain	-5047
idden	-5048
▁begins	-5049
▁fer	-5050
▁proved	-5051
▁respond	-5052
▁frequently	-5053
▁Cop	-5054
▁severe	-5055
bury	-5056
▁academic	-5057
▁initi	-5058
▁Mot	-5059
▁	-5060
▁scored	-5061
▁spring	-5062
eries	-5063
▁argument	-5064
▁egg	-5065
▁adopted	-5066
standing	-5067
▁sac	-5068
iders	-5069
▁pit	-5070
▁creation	-5071
▁tool	-5072
▁benefits	-5073
▁instrument	-5074
▁assigned	-5075
▁suggested	-5076
▁Before	-5077
unct	-5078
▁existence	-5079
ko	-5080
▁flat	-5081
▁decom	-5082
▁attended	-5083
▁Bir	-5084
inder	-5085
oli	-5086
▁phen	-5087
▁diseases	-5088
▁Team	-5089
inals	-5090
▁ships	-5091
▁retain	-5092
▁Test	-5093
▁core	-5094
AA	-5095
▁Given	-5096
▁sand	-5097
▁conflict	-5098
do	-5099
wan	-5100
▁reduction	-5101
rates	-5102
▁wall	-5103
▁Space	-5104
DP	-5105
▁Wild	-5106
▁approaches	-5107
▁Sever	-5108
▁visit	-5109
ollary	-5110
▁ordered	-5111
▁acquired	-5112
istical	-5113
inity	-5114
▁Publ	-5115
vex	-5116
▁categor	-5117
▁slightly	-5118
▁Λ	-5119
▁Web	-5120
▁era	-5121
▁Home	-5122
▁Gall	-5123
ih	-5124
▁murder	-5125
ora	-5126
CS	-5127
itis	-5128
▁Winter	-5129
▁administr	-5130
dis	-5131
▁Assembly	-5132
▁gene	-5133
▁perman	-5134
▁infection	-5135
omers	-5136
▁traffic	-5137
▁onto	-5138
▁util	-5139
▁Chief	-5140
achus	-5141
inking	-5142
▁Corn	-5143
uations	-5144
▁bottom	-5145
▁Coast	-5146
▁ξ	-5147
▁BBC	-5148
▁studio	-5149
burgh	-5150
▁maps	-5151
▁genetic	-5152
▁Sand	-5153
▁simpl	-5154
alities	-5155
▁Dun	-5156
▁Oxford	-5157
▁Today	-5158
▁Card	-5159
iat	-5160
▁Systems	-5161
▁belief	-5162
▁Federal	-5163
▁occurred	-5164
▁getting	-5165
)(	-5166
▁standards	-5167
center	-5168
▁Stan	-5169
▁Berlin	-5170
▁facilities	-5171
▁reform	-5172
▁strugg	-5173
▁territory	-5174
CO	-5175
▁nearby	-5176
▁thing	-5177
eler	-5178
rm	-5179
▁Far	-5180
▁Hor	-5181
▁colle	-5182
da	-5183
▁Theatre	-5184
▁root	-5185
teen	-5186
▁eat	-5187
▁van	-5188
▁message	-5189
▁connection	-5190
▁engineering	-5191
▁Little	-5192
▁costs	-5193
▁Lie	-5194
▁classification	-5195
▁Rome	-5196
▁Furthermore	-5197
▁constraints	-5198
▁enjoy	-5199
▁Viet	-5200
▁semi	-5201
inois	-5202
▁estimate	-5203
iced	-5204
hester	-5205
umes	-5206
▁tun	-5207
iable	-5208
▁serving	-5209
adelph	-5210
ager	-5211
▁houses	-5212
▁owners	-5213
▁managed	-5214
▁UN	-5215
▁Color	-5216
Al	-5217
▁university	-5218
▁scene	-5219
ca	-5220
▁Prem	-5221
stone	-5222
▁resistance	-5223
▁convers	-5224
▁baseball	-5225
▁interesting	-5226
▁height	-5227
▁lies	-5228
ogue	-5229
▁absor	-5230
▁Ray	-5231
▁Jones	-5232
▁NAS	-5233
▁flood	-5234
▁Johnson	-5235
▁tracks	-5236
▁safe	-5237
▁bacteria	-5238
shire	-5239
▁Ohio	-5240
▁file	-5241
▁Family	-5242
▁editor	-5243
▁Ha	-5244
▁geomet	-5245
▁Way	-5246
▁subsequently	-5247
▁Festival	-5248
▁Charl	-5249
adelphia	-5250
▁guarant	-5251
▁Ur	-5252
▁attacks	-5253
▁Equ	-5254
▁embed	-5255
▁sort	-5256
▁graphs	-5257
onia	-5258
▁Dev	-5259
adron	-5260
▁prime	-5261
▁surrounding	-5262
▁Office	-5263
▁perfect	-5264
▁Field	-5265
▁museum	-5266
▁Wall	-5267
zy	-5268
▁toward	-5269
amental	-5270
▁arrest	-5271
achusetts	-5272
▁emphas	-5273
▁Francisco	-5274
▁Prince	-5275
▁Jr	-5276
▁ratio	-5277
▁shared	-5278
▁weather	-5279
▁expansion	-5280
rors	-5281
▁Engineering	-5282
▁learned	-5283
emy	-5284
ibr	-5285
▁Wal	-5286
▁marked	-5287
▁Ven	-5288
)|	-5289
▁commission	-5290
▁Set	-5291
▁Michigan	-5292
▁regional	-5293
▁Islands	-5294
▁estimation	-5295
andon	-5296
▁amb	-5297
osophy	-5298
iro	-5299
▁hun	-5300
▁mixed	-5301
▁officer	-5302
Un	-5303
▁tournament	-5304
▁cars	-5305
▁Tre	-5306
ograp	-5307
▁items	-5308
▁depart	-5309
▁Design	-5310
▁asp	-5311
aussian	-5312
▁Gar	-5313
hire	-5314
▁improved	-5315
▁notes	-5316
yd	-5317
LA	-5318
▁Every	-5319
▁sides	-5320
▁tail	-5321
▁professor	-5322
▁Cub	-5323
▁recording	-5324
It	-5325
”.	-5326
ighter	-5327
▁MP	-5328
▁astron	-5329
▁refers	-5330
▁Scient	-5331
▁Films	-5332
▁oppos	-5333
atically	-5334
▁Illinois	-5335
itage	-5336
yr	-5337
▁Mach	-5338
▁Georgia	-5339
▁conj	-5340
igration	-5341
▁Die	-5342
▁vehicle	-5343
▁Rh	-5344
▁Gree	-5345
▁patient	-5346
▁config	-5347
▁locations	-5348
▁Lew	-5349
left	-5350
ancing	-5351
▁alone	-5352
▁instruct	-5353
eli	-5354
▁Massachusetts	-5355
orship	-5356
▁centuries	-5357
under	-5358
▁Van	-5359
)-	-5360
ounded	-5361
ulty	-5362
▁Transport	-5363
▁seat	-5364
▁symmet	-5365
▁Review	-5366
▁portion	-5367
▁vacc	-5368
▁computation	-5369
▁coe	-5370
▁category	-5371
▁IV	-5372
ocation	-5373
▁wave	-5374
▁Route	-5375
▁Environment	-5376
▁kept	-5377
▁reports	-5378
▁Province	-5379
▁boundary	-5380
▁suggests	-5381
uer	-5382
orough	-5383
tainment	-5384
▁planning	-5385
▁Philadelphia	-5386
▁marg	-5387
▁beaut	-5388
▁experien	-5389
▁Studies	-5390
▁transition	-5391
ygen	-5392
....	-5393
▁vehicles	-5394
▁decades	-5395
aya	-5396
▁cold	-5397
▁mountain	-5398
ira	-5399
eties	-5400
▁finding	-5401
▁Corps	-5402
▁bodies	-5403
▁spaces	-5404
▁secondary	-5405
RO	-5406
▁flight	-5407
▁letters	-5408
▁institutions	-5409
DA	-5410
osed	-5411
▁storage	-5412
▁crew	-5413
▁Hu	-5414
gest	-5415
▁optimization	-5416
▁peak	-5417
▁hospital	-5418
▁Norm	-5419
▁purs	-5420
▁Forest	-5421
▁Like	-5422
ipl	-5423
arp	-5424
acent	-5425
apes	-5426
▁Open	-5427
ocated	-5428
▁reaction	-5429
▁swe	-5430
eding	-5431
▁Revolution	-5432
▁Suppose	-5433
▁iron	-5434
▁hockey	-5435
inem	-5436
▁inequality	-5437
▁exchange	-5438
▁clin	-5439
▁cycl	-5440
▁populations	-5441
▁Sciences	-5442
▁isol	-5443
▁Treaties	-5444
▁advantage	-5445
lers	-5446
▁positions	-5447
aska	-5448
gu	-5449
text	-5450
oir	-5451
▁Centre	-5452
ba	-5453
max	-5454
▁strength	-5455
▁saying	-5456
▁principal	-5457
▁Ast	-5458
▁invent	-5459
arters	-5460
▁hop	-5461
abeth	-5462
▁ST	-5463
cription	-5464
▁failure	-5465
ji	-5466
▁Pen	-5467
imately	-5468
▁Mov	-5469
▁ur	-5470
ounder	-5471
gal	-5472
▁Att	-5473
ampion	-5474
▁Ell	-5475
yer	-5476
▁acts	-5477
▁Theory	-5478
▁arms	-5479
▁rough	-5480
▁parties	-5481
▁Show	-5482
▁passeng	-5483
▁Sund	-5484
▁episodes	-5485
▁causing	-5486
rons	-5487
▁destroyed	-5488
▁association	-5489
▁vess	-5490
▁filter	-5491
▁vit	-5492
orter	-5493
▁elev	-5494
▁speech	-5495
▁Boy	-5496
rome	-5497
▁Arm	-5498
▁accepted	-5499
▁flag	-5500
▁liber	-5501
EM	-5502
▁Television	-5503
IA	-5504
icts	-5505
▁Head	-5506
▁dim	-5507
ocol	-5508
▁strict	-5509
▁Nations	-5510
▁matches	-5511
▁depending	-5512
▁ǫ	-5513
plication	-5514
▁revealed	-5515
▁Labor	-5516
inson	-5517
▁Military	-5518
▁eyes	-5519
▁Game	-5520
▁sister	-5521
▁Williams	-5522
▁approximation	-5523
▁foods	-5524
cluding	-5525
Ar	-5526
crib	-5527
▁someone	-5528
▁NY	-5529
▁Kenn	-5530
▁fell	-5531
▁mental	-5532
▁Ott	-5533
aven	-5534
▁surpr	-5535
asty	-5536
▁officers	-5537
▁Tri	-5538
▁Enter	-5539
▁Muslim	-5540
▁advanced	-5541
▁expressed	-5542
▁Non	-5543
▁Algorithm	-5544
▁Ram	-5545
illing	-5546
hips	-5547
▁trained	-5548
▁reject	-5549
▁scholars	-5550
▁Bell	-5551
perial	-5552
era	-5553
▁mel	-5554
▁recognized	-5555
▁Brook	-5556
▁entry	-5557
▁movie	-5558
▁Method	-5559
▁segment	-5560
bal	-5561
▁quarter	-5562
track	-5563
▁imag	-5564
cers	-5565
free	-5566
▁doub	-5567
}.	-5568
certain	-5569
▁monitor	-5570
▁price	-5571
pon	-5572
▁adults	-5573
▁Medal	-5574
▁resulted	-5575
▁versions	-5576
▁xi	-5577
▁Dec	-5578
▁Korea	-5579
▁missing	-5580
▁arrived	-5581
▁subset	-5582
▁numer	-5583
▁bomb	-5584
agram	-5585
▁Polish	-5586
grad	-5587
▁roll	-5588
▁fresh	-5589
pat	-5590
▁Band	-5591
▁stable	-5592
▁senior	-5593
▁feat	-5594
▁depth	-5595
▁Light	-5596
▁prefer	-5597
▁lem	-5598
▁Gh	-5599
▁rich	-5600
ologists	-5601
inates	-5602
ni	-5603
▁accuracy	-5604
▁dedicated	-5605
▁independence	-5606
uts	-5607
▁Anton	-5608
▁towns	-5609
ht	-5610
▁mil	-5611
▁solid	-5612
▁glass	-5613
▁captured	-5614
▁Hung	-5615
▁meant	-5616
yan	-5617
▁tru	-5618
▁ben	-5619
▁rein	-5620
▁Ba	-5621
▁Championships	-5622
▁crick	-5623
ivation	-5624
▁agreement	-5625
▁Down	-5626
▁extremely	-5627
aylor	-5628
▁trying	-5629
▁join	-5630
erg	-5631
▁Corpor	-5632
▁formula	-5633
▁partners	-5634
omew	-5635
▁Bang	-5636
▁Internet	-5637
oz	-5638
mir	-5639
emic	-5640
▁stone	-5641
▁claims	-5642
▁administration	-5643
▁diam	-5644
itness	-5645
▁Ros	-5646
cohol	-5647
hew	-5648
▁tell	-5649
▁issued	-5650
▁Jackson	-5651
antry	-5652
▁..	-5653
▁Free	-5654
▁depends	-5655
▁Communic	-5656
▁typical	-5657
▁Os	-5658
vey	-5659
ependent	-5660
▁description	-5661
▁ax	-5662
▁residents	-5663
▁benefit	-5664
hematical	-5665
▁waste	-5666
ective	-5667
▁Bridge	-5668
iling	-5669
uten	-5670
def	-5671
▁aspects	-5672
oto	-5673
oster	-5674
greg	-5675
▁marriage	-5676
▁exposure	-5677
▁defin	-5678
▁Jesus	-5679
▁practices	-5680
ima	-5681
cell	-5682
▁showing	-5683
car	-5684
▁burn	-5685
▁Marine	-5686
di	-5687
wa	-5688
▁stadium	-5689
ja	-5690
▁asym	-5691
▁characteristics	-5692
▁silver	-5693
▁drive	-5694
▁province	-5695
▁explicit	-5696
viation	-5697
▁liqu	-5698
▁Governor	-5699
▁exercise	-5700
▁detection	-5701
olis	-5702
▁closely	-5703
▁twice	-5704
▁mouth	-5705
▁fear	-5706
idel	-5707
▁Due	-5708
alysis	-5709
▁Death	-5710
▁Such	-5711
▁opportunity	-5712
▁technical	-5713
weight	-5714
alty	-5715
▁matrices	-5716
____	-5717
▁alle	-5718
▁calls	-5719
▁Key	-5720
▁introduction	-5721
▁newspaper	-5722
▁organized	-5723
▁Night	-5724
▁Vis	-5725
▁Daniel	-5726
▁Ont	-5727
ulating	-5728
▁repro	-5729
▁Girl	-5730
▁agents	-5731
▁doesn	-5732
ione	-5733
▁controvers	-5734
▁tasks	-5735
▁propos	-5736
▁batter	-5737
▁Students	-5738
▁Wilson	-5739
unities	-5740
rieved	-5741
ali	-5742
Xiv	-5743
▁Ken	-5744
▁assumption	-5745
ariant	-5746
▁theore	-5747
▁Justice	-5748
▁hus	-5749
▁App	-5750
▁Medical	-5751
▁pairs	-5752
▁authority	-5753
bu	-5754
▁unc	-5755
oes	-5756
▁chair	-5757
izer	-5758
▁Ok	-5759
ronze	-5760
.;	-5761
ML	-5762
▁cos	-5763
▁od	-5764
▁shoot	-5765
▁Indust	-5766
key	-5767
▁regarding	-5768
▁describes	-5769
incial	-5770
opher	-5771
rehens	-5772
▁personnel	-5773
▁Ext	-5774
▁clubs	-5775
TS	-5776
alse	-5777
▁Sa	-5778
aser	-5779
▁Prize	-5780
▁specifically	-5781
▁injury	-5782
▁religion	-5783
▁firm	-5784
▁comparison	-5785
▁Ker	-5786
▁Batt	-5787
ashion	-5788
▁copy	-5789
ye	-5790
▁camer	-5791
▁kid	-5792
▁teeth	-5793
”,	-5794
▁clearly	-5795
▁emot	-5796
▁objective	-5797
▁Guard	-5798
▁miner	-5799
▁policies	-5800
▁settlement	-5801
▁thousands	-5802
▁ocean	-5803
alion	-5804
▁grew	-5805
▁planned	-5806
▁trial	-5807
▁Constitution	-5808
ificial	-5809
MP	-5810
▁faith	-5811
▁collected	-5812
▁von	-5813
▁vote	-5814
▁Data	-5815
▁fundamental	-5816
▁grass	-5817
▁Micro	-5818
▁storm	-5819
▁Bab	-5820
▁Rog	-5821
▁picture	-5822
asure	-5823
▁Food	-5824
▁Modern	-5825
▁Station	-5826
▁extensive	-5827
poss	-5828
▁draft	-5829
 –	-5830
▁taught	-5831
iga	-5832
▁Creek	-5833
itionally	-5834
▁Rev	-5835
▁floor	-5836
▁AN	-5837
actions	-5838
▁requirements	-5839
▁narrow	-5840
icy	-5841
▁vision	-5842
eld	-5843
▁Eliz	-5844
▁educational	-5845
▁touch	-5846
▁withd	-5847
▁Among	-5848
▁Clark	-5849
▁pra	-5850
▁spot	-5851
▁Books	-5852
▁compute	-5853
ropical	-5854
▁advance	-5855
▁retired	-5856
wing	-5857
thur	-5858
▁convent	-5859
▁nothing	-5860
▁binary	-5861
▁singles	-5862
▁rout	-5863
▁wire	-5864
ounger	-5865
hol	-5866
▁Director	-5867
▁declared	-5868
throp	-5869
▁controlled	-5870
▁Ira	-5871
people	-5872
▁perhaps	-5873
asy	-5874
▁divers	-5875
▁Ren	-5876
▁coal	-5877
▁yellow	-5878
▁remark	-5879
▁Les	-5880
▁discussed	-5881
▁Han	-5882
stream	-5883
▁freedom	-5884
▁generate	-5885
▁Supreme	-5886
▁Mir	-5887
▁script	-5888
ois	-5889
▁indicate	-5890
▁Corollary	-5891
▁Raj	-5892
zech	-5893
▁sched	-5894
▁honor	-5895
▁treated	-5896
amber	-5897
abetes	-5898
▁descent	-5899
])	-5900
▁manner	-5901
oln	-5902
▁powers	-5903
▁Members	-5904
▁neur	-5905
▁Fact	-5906
▁explain	-5907
▁transmission	-5908
▁Cre	-5909
▁minimal	-5910
▁Uk	-5911
utation	-5912
▁Atlantic	-5913
▁composition	-5914
▁Moon	-5915
▁Medic	-5916
án	-5917
▁Sign	-5918
▁tele	-5919
▁thinking	-5920
},	-5921
▁signs	-5922
ais	-5923
lav	-5924
▁Victoria	-5925
▁repeated	-5926
▁Jon	-5927
linear	-5928
▁fix	-5929
▁possibly	-5930
imb	-5931
ache	-5932
▁Athlet	-5933
ulpt	-5934
ocese	-5935
urance	-5936
▁Joe	-5937
▁ign	-5938
▁prepar	-5939
▁ce	-5940
▁involves	-5941
▁operator	-5942
▁neighborhood	-5943
▁Mike	-5944
ource	-5945
▁tried	-5946
▁assumed	-5947
town	-5948
abase	-5949
▁confir	-5950
▁disorder	-5951
▁figures	-5952
▁kil	-5953
iot	-5954
ador	-5955
▁Ash	-5956
▁Ut	-5957
▁κ	-5958
▁foss	-5959
AP	-5960
Amendment	-5961
▁council	-5962
▁journ	-5963
▁Θ	-5964
▁sexual	-5965
▁Hun	-5966
▁beat	-5967
▁Argent	-5968
▁employed	-5969
▁worth	-5970
▁layers	-5971
▁challenge	-5972
▁Ah	-5973
iful	-5974
▁library	-5975
▁proport	-5976
▁Asian	-5977
▁fine	-5978
inus	-5979
ipe	-5980
▁ends	-5981
▁bounds	-5982
▁Baseball	-5983
▁Ontario	-5984
rations	-5985
▁Process	-5986
▁agreed	-5987
▁apparent	-5988
▁transferred	-5989
isted	-5990
▁strategies	-5991
',	-5992
▁Sat	-5993
roke	-5994
▁Rom	-5995
▁Next	-5996
▁Community	-5997
▁arXiv	-5998
▁purposes	-5999
anes	-6000
▁nor	-6001
▁practical	-6002
▁About	-6003
▁trust	-6004
▁pure	-6005
▁inject	-6006
▁partial	-6007
una	-6008
▁antib	-6009
illy	-6010
▁Kir	-6011
▁affili	-6012
▁Der	-6013
chestra	-6014
▁county	-6015
▁Sem	-6016
▁roles	-6017
▁particles	-6018
▁Jean	-6019
▁triang	-6020
▁hypothesis	-6021
ailed	-6022
▁changing	-6023
cious	-6024
▁Point	-6025
▁adding	-6026
zen	-6027
▁Model	-6028
▁actors	-6029
▁assistant	-6030
▁teach	-6031
▁Use	-6032
▁felt	-6033
▁pieces	-6034
▁solve	-6035
▁athlet	-6036
▁Democratic	-6037
▁Naz	-6038
▁Professor	-6039
AL	-6040
▁Armen	-6041
kes	-6042
▁Sn	-6043
▁oxygen	-6044
▁vent	-6045
gery	-6046
onto	-6047
ucky	-6048
norm	-6049
▁pun	-6050
▁sport	-6051
▁officials	-6052
▁trig	-6053
▁hour	-6054
▁nam	-6055
▁newly	-6056
▁expanded	-6057
▁candidate	-6058
ystem	-6059
▁Several	-6060
▁Princ	-6061
▁alt	-6062
▁dynamic	-6063
▁Log	-6064
ifies	-6065
istered	-6066
▁discussion	-6067
▁bud	-6068
FC	-6069
▁concepts	-6070
rance	-6071
▁id	-6072
▁string	-6073
▁remember	-6074
▁Gaussian	-6075
iate	-6076
▁prominent	-6077
ricts	-6078
▁youth	-6079
▁Belg	-6080
▁cra	-6081
▁Syd	-6082
▁phenomen	-6083
▁balance	-6084
sm	-6085
ennis	-6086
▁adjacent	-6087
▁constitution	-6088
ture	-6089
ulus	-6090
unte	-6091
agues	-6092
▁fifth	-6093
▁household	-6094
▁translation	-6095
mm	-6096
▁cooper	-6097
▁acting	-6098
▁delay	-6099
▁Poland	-6100
ederation	-6101
▁blocks	-6102
▁Lewis	-6103
▁£	-6104
idae	-6105
▁signals	-6106
rep	-6107
bar	-6108
▁overl	-6109
fit	-6110
▁Dig	-6111
DF	-6112
▁therapy	-6113
▁temperatures	-6114
▁renamed	-6115
▁Syn	-6116
IP	-6117
▁Czech	-6118
ifications	-6119
▁Aff	-6120
▁waters	-6121
▁plot	-6122
▁agricultural	-6123
ivial	-6124
▁Represent	-6125
▁domestic	-6126
▁gets	-6127
▁attend	-6128
▁mechanism	-6129
▁subsequent	-6130
incoln	-6131
▁Turkey	-6132
IM	-6133
▁Short	-6134
▁serves	-6135
▁cerem	-6136
▁Steve	-6137
▁Nether	-6138
▁CP	-6139
▁principle	-6140
▁notable	-6141
mat	-6142
▁tal	-6143
inating	-6144
▁ancest	-6145
▁--	-6146
▁Media	-6147
pective	-6148
▁remove	-6149
▁chance	-6150
▁Bol	-6151
▁Ly	-6152
▁detailed	-6153
▁Elizabeth	-6154
▁external	-6155
▁fighting	-6156
VD	-6157
▁Business	-6158
▁Tam	-6159
comm	-6160
▁reconst	-6161
▁Kong	-6162
▁focused	-6163
igenous	-6164
▁sustain	-6165
▁evaluation	-6166
organ	-6167
▁Taylor	-6168
writer	-6169
▁Cle	-6170
▁integer	-6171
▁deploy	-6172
▁summ	-6173
▁thick	-6174
▁gained	-6175
▁Why	-6176
▁abandon	-6177
▁Santa	-6178
▁relevant	-6179
gency	-6180
▁officially	-6181
Se	-6182
▁interested	-6183
▁resolution	-6184
▁starts	-6185
▁extract	-6186
▁substant	-6187
▁victim	-6188
▁AP	-6189
▁ped	-6190
itzer	-6191
▁satisfies	-6192
▁capture	-6193
▁tells	-6194
▁wa	-6195
▁Ger	-6196
▁Bad	-6197
▁alter	-6198
▁convex	-6199
▁articles	-6200
▁swim	-6201
CD	-6202
▁Jacob	-6203
▁seed	-6204
▁emp	-6205
▁fruit	-6206
▁Bru	-6207
▁Buddh	-6208
▁rural	-6209
▁watch	-6210
osh	-6211
▁Administ	-6212
fall	-6213
▁Video	-6214
▁husband	-6215
▁diff	-6216
▁gram	-6217
▁measured	-6218
▁executive	-6219
▁Heart	-6220
▁whereas	-6221
mentary	-6222
ker	-6223
rig	-6224
▁Historic	-6225
▁Es	-6226
▁Sus	-6227
▁walls	-6228
▁sections	-6229
▁computing	-6230
▁Norw	-6231
▁circuit	-6232
▁Tal	-6233
▁truth	-6234
uses	-6235
▁dataset	-6236
▁sequences	-6237
▁landsc	-6238
▁aid	-6239
▁Only	-6240
▁cart	-6241
▁Fire	-6242
▁hope	-6243
▁Sydney	-6244
▁alongside	-6245
▁couple	-6246
▁greatest	-6247
▁faster	-6248
▁vectors	-6249
▁illness	-6250
▁quantum	-6251
▁adap	-6252
▁equations	-6253
▁codes	-6254
▁proceed	-6255
▁somew	-6256
▁Obs	-6257
▁consumption	-6258
▁possess	-6259
▁grade	-6260
▁drugs	-6261
US	-6262
▁bone	-6263
▁leadership	-6264
Cl	-6265
inator	-6266
▁Ocean	-6267
Sc	-6268
▁anything	-6269
▁effectively	-6270
active	-6271
iner	-6272
▁dual	-6273
▁Avenue	-6274
▁compl	-6275
▁stim	-6276
▁explained	-6277
▁compact	-6278
▁contemporary	-6279
Le	-6280
▁paint	-6281
iveness	-6282
▁linked	-6283
▁cluster	-6284
asi	-6285
▁characteristic	-6286
▁Ec	-6287
▁dance	-6288
▁Management	-6289
▁PC	-6290
seud	-6291
oured	-6292
▁Well	-6293
▁Philipp	-6294
▁morning	-6295
▁DC	-6296
cycl	-6297
ulum	-6298
▁neut	-6299
▁observations	-6300
▁Nic	-6301
▁Rod	-6302
▁sector	-6303
going	-6304
▁Hong	-6305
▁Colorado	-6306
▁Bat	-6307
▁Energy	-6308
onal	-6309
▁bond	-6310
▁Though	-6311
rat	-6312
tery	-6313
LE	-6314
▁suffered	-6315
▁cloud	-6316
erves	-6317
▁opin	-6318
aph	-6319
▁∧	-6320
▁circum	-6321
ila	-6322
ynasty	-6323
▁Circ	-6324
iox	-6325
▁Eth	-6326
▁kids	-6327
▁introduce	-6328
onym	-6329
▁Lincoln	-6330
▁Marg	-6331
▁entirely	-6332
▁successfully	-6333
▁Holy	-6334
rizona	-6335
▁Alf	-6336
▁pul	-6337
▁street	-6338
▁Mountain	-6339
▁Tro	-6340
appe	-6341
▁Brig	-6342
▁resource	-6343
▁atmosphere	-6344
▁huge	-6345
bourne	-6346
aria	-6347
▁inner	-6348
%)	-6349
icon	-6350
ching	-6351
▁Rights	-6352
▁ACM	-6353
▁Netherlands	-6354
▁drama	-6355
▁unable	-6356
▁returns	-6357
▁Iraq	-6358
▁NASA	-6359
ogy	-6360
▁Fair	-6361
▁uncertain	-6362
real	-6363
▁frag	-6364
▁roy	-6365
arse	-6366
▁oldest	-6367
▁expon	-6368
▁arbitrary	-6369
eman	-6370
▁bow	-6371
▁Gro	-6372
emeter	-6373
lines	-6374
▁passing	-6375
▁bed	-6376
▁inspired	-6377
▁stock	-6378
▁genes	-6379
▁Instead	-6380
zing	-6381
▁wealth	-6382
▁occasion	-6383
▁granted	-6384
bell	-6385
▁ly	-6386
▁Luc	-6387
ilton	-6388
▁Duke	-6389
▁strongly	-6390
issions	-6391
▁◦	-6392
▁doct	-6393
▁hair	-6394
▁Age	-6395
▁resident	-6396
▁obvious	-6397
▁∀	-6398
▁defeat	-6399
ami	-6400
pled	-6401
itled	-6402
▁tens	-6403
▁Natural	-6404
▁CE	-6405
▁earned	-6406
▁Services	-6407
▁consisting	-6408
▁empt	-6409
▁mic	-6410
▁mist	-6411
ervative	-6412
▁efficiency	-6413
ova	-6414
claim	-6415
▁owner	-6416
▁implemented	-6417
New	-6418
ori	-6419
▁Senate	-6420
▁facility	-6421
**	-6422
top	-6423
risis	-6424
▁sugar	-6425
▁featuring	-6426
▁producing	-6427
▁cert	-6428
inding	-6429
chen	-6430
▁radiation	-6431
urches	-6432
igrants	-6433
also	-6434
▁die	-6435
▁Bishop	-6436
▁islands	-6437
▁younger	-6438
▁mo	-6439
▁excess	-6440
▁Commun	-6441
▁purchased	-6442
▁AS	-6443
▁Tony	-6444
▁Ho	-6445
▁Kim	-6446
▁pup	-6447
▁transmit	-6448
ctic	-6449
▁sav	-6450
▁criter	-6451
▁Local	-6452
▁module	-6453
▁ethnic	-6454
don	-6455
▁desired	-6456
▁Bh	-6457
olitan	-6458
▁suitable	-6459
▁ultimately	-6460
▁attempts	-6461
▁elections	-6462
▁←	-6463
▁Win	-6464
▁observation	-6465
omatic	-6466
▁Colon	-6467
========	-6468
faces	-6469
▁reality	-6470
▁department	-6471
▁Who	-6472
▁Pass	-6473
▁trains	-6474
▁crim	-6475
▁income	-6476
▁coaches	-6477
ront	-6478
fe	-6479
▁alcohol	-6480
▁everything	-6481
uming	-6482
▁Sher	-6483
▁innov	-6484
▁paid	-6485
▁authorities	-6486
▁IN	-6487
▁indicates	-6488
▁schedul	-6489
▁Official	-6490
▁permanent	-6491
▁Low	-6492
▁heard	-6493
▁Kansas	-6494
▁involving	-6495
▁Hal	-6496
▁genus	-6497
▁Queens	-6498
des	-6499
aki	-6500
▁Chris	-6501
▁performing	-6502
AD	-6503
▁Si	-6504
estab	-6505
▁Area	-6506
▁Crit	-6507
▁Prime	-6508
▁tox	-6509
athan	-6510
▁tissue	-6511
▁Arizona	-6512
▁lake	-6513
▁sed	-6514
▁Trust	-6515
lan	-6516
▁expand	-6517
scale	-6518
▁extreme	-6519
▁’	-6520
▁Master	-6521
akh	-6522
▁resid	-6523
▁errors	-6524
▁Corporation	-6525
▁Highway	-6526
▁Mic	-6527
▁forests	-6528
▁modified	-6529
ouri	-6530
▁Vari	-6531
▁cogn	-6532
▁comedy	-6533
▁abstract	-6534
▁Minnes	-6535
▁Cost	-6536
▁Last	-6537
▁sculpt	-6538
▁Earl	-6539
▁hosted	-6540
mic	-6541
▁instruction	-6542
▁pregn	-6543
▁theme	-6544
▁Hay	-6545
▁Hom	-6546
▁discovery	-6547
jo	-6548
gers	-6549
▁turns	-6550
▁synd	-6551
▁discrete	-6552
eller	-6553
▁Korean	-6554
▁visible	-6555
▁Mexican	-6556
▁Live	-6557
▁smooth	-6558
▁violence	-6559
▁Opt	-6560
▁Stephen	-6561
▁contribut	-6562
▁combat	-6563
▁covers	-6564
▁promote	-6565
▁Wat	-6566
pass	-6567
▁Exper	-6568
oids	-6569
unc	-6570
▁morph	-6571
▁Minnesota	-6572
▁partition	-6573
▁Beng	-6574
▁absol	-6575
emble	-6576
Is	-6577
▁opposed	-6578
▁opposite	-6579
tes	-6580
▁medicine	-6581
▁Toronto	-6582
▁partner	-6583
▁apart	-6584
RC	-6585
long	-6586
HL	-6587
▁Indiana	-6588
▁Balt	-6589
▁Chen	-6590
ads	-6591
mes	-6592
▁concentration	-6593
▁Prim	-6594
▁didn	-6595
▁Author	-6596
▁consistent	-6597
brid	-6598
▁Philip	-6599
▁explan	-6600
obe	-6601
▁AT	-6602
▁consec	-6603
annels	-6604
▁adjust	-6605
▁Sab	-6606
▁orient	-6607
▁bran	-6608
▁AM	-6609
▁revolution	-6610
yo	-6611
▁explo	-6612
▁Vill	-6613
▁Secretary	-6614
aste	-6615
▁Country	-6616
▁plate	-6617
▁Current	-6618
ricted	-6619
▁capable	-6620
▁Bah	-6621
▁Fox	-6622
quarters	-6623
ambig	-6624
vements	-6625
▁hero	-6626
▁denotes	-6627
ga	-6628
bro	-6629
▁quad	-6630
▁kern	-6631
▁steel	-6632
oses	-6633
▁Expl	-6634
▁detect	-6635
▁Aud	-6636
▁parent	-6637
▁observe	-6638
▁decisions	-6639
▁TH	-6640
outs	-6641
▁Hard	-6642
▁experienced	-6643
▁rugby	-6644
LS	-6645
▁mobile	-6646
lets	-6647
▁leaf	-6648
▁Security	-6649
▁Hand	-6650
▁Arthur	-6651
▁challenges	-6652
▁electricity	-6653
ighth	-6654
▁Ball	-6655
▁Turkish	-6656
▁stre	-6657
▁Retrieved	-6658
▁recommend	-6659
▁vs	-6660
▁inhabit	-6661
▁relationships	-6662
ouns	-6663
▁nit	-6664
▁MS	-6665
▁homes	-6666
mad	-6667
▁Ts	-6668
worth	-6669
▁appearances	-6670
▁tren	-6671
▁copies	-6672
▁Walk	-6673
▁horiz	-6674
erior	-6675
▁save	-6676
rine	-6677
▁install	-6678
▁functional	-6679
▁Lady	-6680
aver	-6681
▁Remark	-6682
▁Bos	-6683
sey	-6684
▁Gil	-6685
▁liquid	-6686
▁Personal	-6687
▁zone	-6688
outheast	-6689
▁lie	-6690
▁Example	-6691
osystem	-6692
gi	-6693
▁Marsh	-6694
▁nucle	-6695
aturally	-6696
▁neuro	-6697
indu	-6698
▁extens	-6699
▁lemma	-6700
▁produces	-6701
)/	-6702
law	-6703
▁Norway	-6704
ader	-6705
vard	-6706
▁Six	-6707
▁accurate	-6708
▁pool	-6709
chang	-6710
▁corpor	-6711
▁tempor	-6712
▁soc	-6713
▁Comb	-6714
▁girls	-6715
▁Greece	-6716
bec	-6717
from	-6718
▁Cam	-6719
ictional	-6720
▁finitely	-6721
▁engineer	-6722
olar	-6723
▁concerns	-6724
▁biological	-6725
Sh	-6726
▁Language	-6727
▁Bon	-6728
▁Kr	-6729
▁supporting	-6730
▁documents	-6731
▁Case	-6732
▁asympt	-6733
▁periods	-6734
▁Π	-6735
hard	-6736
▁Manc	-6737
▁Liter	-6738
▁audience	-6739
▁Tok	-6740
ui	-6741
▁incident	-6742
▁principles	-6743
▁underst	-6744
dam	-6745
This	-6746
▁sentence	-6747
▁Album	-6748
▁Vietnam	-6749
▁amounts	-6750
%.	-6751
▁Springer	-6752
▁cook	-6753
▁horse	-6754
rang	-6755
▁boy	-6756
▁flex	-6757
▁crime	-6758
▁roots	-6759
▁span	-6760
▁stages	-6761
▁sales	-6762
▁Additionally	-6763
reshold	-6764
▁representing	-6765
▁Pot	-6766
▁Golden	-6767
▁drawn	-6768
▁guard	-6769
▁promoted	-6770
language	-6771
▁minister	-6772
▁SS	-6773
▁consult	-6774
▁electrical	-6775
▁tor	-6776
▁musicians	-6777
▁Sweden	-6778
utenant	-6779
ogle	-6780
▁Nature	-6781
cope	-6782
▁operate	-6783
ivated	-6784
agh	-6785
▁comprehens	-6786
▁fib	-6787
▁conference	-6788
called	-6789
▁conservation	-6790
▁Anth	-6791
▁loop	-6792
▁fashion	-6793
▁plastic	-6794
▁plane	-6795
▁reducing	-6796
▁electron	-6797
▁frame	-6798
▁extent	-6799
ded	-6800
nessee	-6801
▁intelligence	-6802
pton	-6803
▁Native	-6804
▁twenty	-6805
▁Premier	-6806
▁diagram	-6807
ources	-6808
▁goods	-6809
▁experiences	-6810
esh	-6811
▁influenced	-6812
ails	-6813
▁snow	-6814
▁https	-6815
▁stret	-6816
othing	-6817
ses	-6818
ito	-6819
▁governor	-6820
▁habitat	-6821
▁politics	-6822
▁Fle	-6823
No	-6824
▁Croat	-6825
▁contrad	-6826
atial	-6827
▁accident	-6828
▁findings	-6829
▁losing	-6830
'.	-6831
▁cov	-6832
ridges	-6833
▁Command	-6834
▁subjects	-6835
EL	-6836
▁Pit	-6837
▁satell	-6838
▁converted	-6839
▁muscle	-6840
▁tex	-6841
]).	-6842
▁Mean	-6843
▁mort	-6844
▁finds	-6845
enses	-6846
▁shop	-6847
▁Republican	-6848
▁Between	-6849
▁Dam	-6850
▁logic	-6851
▁rapidly	-6852
▁tom	-6853
▁guide	-6854
▁Report	-6855
▁Init	-6856
ultane	-6857
▁Tennessee	-6858
while	-6859
▁spok	-6860
▁Run	-6861
▁Pur	-6862
uese	-6863
including	-6864
▁opportunities	-6865
▁prepared	-6866
▁categories	-6867
HS	-6868
▁χ	-6869
▁Global	-6870
venth	-6871
▁Serb	-6872
▁false	-6873
▁switch	-6874
▁mode	-6875
▁titles	-6876
▁dynamics	-6877
▁Real	-6878
▁Freder	-6879
▁din	-6880
aded	-6881
roc	-6882
▁Lo	-6883
ghan	-6884
ogene	-6885
box	-6886
▁Any	-6887
pson	-6888
▁Wars	-6889
▁Similarly	-6890
▁orders	-6891
▁exclus	-6892
▁option	-6893
fish	-6894
▁instruments	-6895
▁worldwide	-6896
spe	-6897
▁wrong	-6898
hyth	-6899
▁nob	-6900
▁estimates	-6901
▁aer	-6902
▁manif	-6903
irty	-6904
▁Swedish	-6905
tion	-6906
▁enemy	-6907
▁highway	-6908
▁confirmed	-6909
wealth	-6910
▁simulation	-6911
▁eld	-6912
po	-6913
ION	-6914
▁perm	-6915
▁views	-6916
▁immune	-6917
▁classroom	-6918
▁measurements	-6919
▁everyone	-6920
▁movements	-6921
▁orth	-6922
▁renew	-6923
▁conqu	-6924
▁stands	-6925
iary	-6926
BN	-6927
eless	-6928
▁settled	-6929
▁Chem	-6930
▁organic	-6931
▁historic	-6932
▁Junior	-6933
▁notation	-6934
ochastic	-6935
▁wet	-6936
▁Hart	-6937
▁Baron	-6938
zer	-6939
▁Ple	-6940
▁phr	-6941
plete	-6942
▁eating	-6943
▁discrim	-6944
▁manufactur	-6945
TA	-6946
emetery	-6947
▁cab	-6948
▁concrete	-6949
▁earliest	-6950
▁fellow	-6951
▁infinite	-6952
uble	-6953
▁computed	-6954
cknow	-6955
▁Hospital	-6956
▁execution	-6957
▁CR	-6958
▁hidden	-6959
coming	-6960
▁window	-6961
▁exposed	-6962
▁massive	-6963
▁arts	-6964
low	-6965
▁advert	-6966
▁winner	-6967
pool	-6968
elle	-6969
▁weights	-6970
▁notice	-6971
▁protected	-6972
▁array	-6973
▁weapons	-6974
▁cod	-6975
ierarch	-6976
▁Third	-6977
▁Marc	-6978
▁locally	-6979
cient	-6980
asters	-6981
exp	-6982
▁maintained	-6983
▁underlying	-6984
▁bill	-6985
▁situated	-6986
▁grid	-6987
▁request	-6988
▁Sant	-6989
▁channels	-6990
▁interval	-6991
▁medium	-6992
▁angle	-6993
Re	-6994
anga	-6995
▁Nap	-6996
▁publication	-6997
ika	-6998
▁Cra	-6999
uther	-7000
▁campus	-7001
pet	-7002
▁vel	-7003
▁Ministry	-7004
▁Never	-7005
▁holding	-7006
neg	-7007
ieval	-7008
ür	-7009
hedral	-7010
▁Son	-7011
ingly	-7012
▁electronic	-7013
▁escape	-7014
▁doll	-7015
appro	-7016
▁intersection	-7017
▁NFL	-7018
▁diabetes	-7019
▁Miller	-7020
chers	-7021
▁san	-7022
▁fiction	-7023
OP	-7024
▁Front	-7025
▁ready	-7026
▁Fac	-7027
▁Captain	-7028
▁	-7029
sky	-7030
iang	-7031
olds	-7032
▁finish	-7033
▁regarded	-7034
▁extend	-7035
▁Ross	-7036
▁designated	-7037
hand	-7038
net	-7039
▁increasingly	-7040
▁Kal	-7041
▁gar	-7042
▁behaviour	-7043
rastructure	-7044
iley	-7045
western	-7046
▁dropped	-7047
inction	-7048
▁Police	-7049
lig	-7050
▁garden	-7051
▁tested	-7052
▁ending	-7053
▁Building	-7054
▁visited	-7055
roid	-7056
▁buried	-7057
▁Sel	-7058
▁sought	-7059
lic	-7060
▁Missouri	-7061
zi	-7062
aret	-7063
▁fly	-7064
ambiguation	-7065
▁Manchester	-7066
▁heavily	-7067
antics	-7068
▁stores	-7069
ti	-7070
aug	-7071
▁narr	-7072
▁brand	-7073
▁soci	-7074
▁Emperor	-7075
elihood	-7076
BM	-7077
▁Davis	-7078
ifier	-7079
▁gender	-7080
▁acceler	-7081
lyn	-7082
▁estate	-7083
aints	-7084
▁novels	-7085
▁eggs	-7086
▁solo	-7087
▁formerly	-7088
ropolitan	-7089
▁adapted	-7090
▁persons	-7091
▁measurement	-7092
▁Adam	-7093
▁depos	-7094
▁maxim	-7095
irds	-7096
▁net	-7097
▁Schools	-7098
▁interaction	-7099
▁Portuguese	-7100
▁technologies	-7101
egian	-7102
▁normally	-7103
▁Born	-7104
ears	-7105
▁defense	-7106
▁Beach	-7107
▁topic	-7108
▁Spring	-7109
iliar	-7110
▁Brian	-7111
▁shell	-7112
▁distributions	-7113
unch	-7114
▁Moh	-7115
▁roughly	-7116
▁plus	-7117
▁occupied	-7118
▁exped	-7119
▁ban	-7120
▁dipl	-7121
▁attached	-7122
▁shift	-7123
▁recommended	-7124
▁orbit	-7125
▁Christmas	-7126
▁correl	-7127
▁easier	-7128
▁enh	-7129
ectic	-7130
▁Saf	-7131
"|	-7132
▁Kel	-7133
alo	-7134
▁vast	-7135
agen	-7136
▁Lind	-7137
▁robust	-7138
▁happen	-7139
▁gall	-7140
abled	-7141
▁sampling	-7142
▁Barb	-7143
uris	-7144
▁Lt	-7145
▁les	-7146
▁send	-7147
▁Ref	-7148
▁passes	-7149
▁sole	-7150
such	-7151
▁agriculture	-7152
▁interpretation	-7153
▁Rab	-7154
▁therm	-7155
▁instances	-7156
▁curve	-7157
▁propag	-7158
▁Commonwealth	-7159
racy	-7160
▁negot	-7161
eper	-7162
▁Francis	-7163
▁nations	-7164
udden	-7165
▁alph	-7166
▁hearing	-7167
▁parish	-7168
▁Leon	-7169
usal	-7170
▁Again	-7171
▁vac	-7172
▁statistical	-7173
▁baby	-7174
▁Perform	-7175
▁convergence	-7176
▁performances	-7177
▁broken	-7178
▁receiving	-7179
▁connections	-7180
iled	-7181
▁universe	-7182
▁Castle	-7183
▁Wolf	-7184
▁encounter	-7185
eneral	-7186
▁stored	-7187
▁approved	-7188
▁Week	-7189
▁temple	-7190
▁Cas	-7191
▁proteins	-7192
▁interests	-7193
iated	-7194
▁hall	-7195
▁nort	-7196
▁budget	-7197
umin	-7198
▁Know	-7199
▁Contin	-7200
▁options	-7201
▁philosophy	-7202
▁pron	-7203
▁Sound	-7204
▁awards	-7205
▁witness	-7206
enna	-7207
▁immediate	-7208
module	-7209
▁Pope	-7210
▁notion	-7211
▁superv	-7212
▁Abb	-7213
▁Lat	-7214
enh	-7215
▁Channel	-7216
▁tall	-7217
▁opposition	-7218
Pro	-7219
▁Regiment	-7220
▁designs	-7221
zo	-7222
▁expert	-7223
▁politicians	-7224
▁applying	-7225
▁equality	-7226
▁seconds	-7227
uits	-7228
▁diversity	-7229
adesh	-7230
▁covering	-7231
jan	-7232
▁villages	-7233
EP	-7234
▁FC	-7235
▁cas	-7236
▁folk	-7237
▁volt	-7238
ceived	-7239
itud	-7240
▁Bet	-7241
▁surgery	-7242
▁integral	-7243
▁machines	-7244
▁AR	-7245
▁refused	-7246
tenance	-7247
▁experimental	-7248
ić	-7249
then	-7250
forcement	-7251
▁Py	-7252
▁attempted	-7253
urd	-7254
▁milk	-7255
▁Stone	-7256
atri	-7257
stic	-7258
▁colors	-7259
▁variation	-7260
▁Psych	-7261
OC	-7262
▁Sav	-7263
▁Ford	-7264
▁maximal	-7265
orrow	-7266
alog	-7267
GB	-7268
▁wing	-7269
.-	-7270
abul	-7271
▁launch	-7272
▁regularly	-7273
▁Rn	-7274
▁Austria	-7275
pa	-7276
▁Airport	-7277
▁naturally	-7278
▁flo	-7279
▁founder	-7280
▁FI	-7281
▁districts	-7282
inces	-7283
De	-7284
ivals	-7285
disambiguation	-7286
▁computational	-7287
▁grav	-7288
▁limits	-7289
▁happens	-7290
▁accompl	-7291
▁sensor	-7292
atern	-7293
possible	-7294
inth	-7295
type	-7296
arry	-7297
▁bright	-7298
▁disorders	-7299
▁spons	-7300
▁Ku	-7301
▁shif	-7302
▁Bible	-7303
▁excell	-7304
▁database	-7305
▁Simon	-7306
▁Region	-7307
unately	-7308
▁separated	-7309
▁ranked	-7310
▁Memorial	-7311
erb	-7312
plex	-7313
▁Dor	-7314
▁Khan	-7315
▁situations	-7316
▁Mun	-7317
▁succeeded	-7318
▁explore	-7319
▁empty	-7320
▁Medicine	-7321
▁possibility	-7322
inton	-7323
▁Fund	-7324
▁Adv	-7325
▁none	-7326
▁branches	-7327
SS	-7328
▁archae	-7329
▁EP	-7330
▁Regional	-7331
▁driver	-7332
He	-7333
▁decade	-7334
▁labels	-7335
▁foundation	-7336
▁royal	-7337
orous	-7338
▁jobs	-7339
▁participants	-7340
▁coastal	-7341
▁recip	-7342
▁threshold	-7343
▁Mathematics	-7344
▁defend	-7345
▁Hockey	-7346
▁profession	-7347
▁Turn	-7348
spec	-7349
▁piano	-7350
▁colour	-7351
▁hundreds	-7352
▁mir	-7353
▁representative	-7354
ollo	-7355
▁greatly	-7356
▁mamm	-7357
erse	-7358
riculum	-7359
acher	-7360
▁outer	-7361
▁interpre	-7362
▁Norwegian	-7363
▁fluid	-7364
▁emissions	-7365
▁Melbourne	-7366
▁fought	-7367
▁⊕	-7368
▁Works	-7369
▁Former	-7370
▁interior	-7371
dr	-7372
▁simultane	-7373
▁Final	-7374
▁recovery	-7375
▁Chap	-7376
▁rig	-7377
▁yields	-7378
▁inher	-7379
▁Indeed	-7380
cribed	-7381
illery	-7382
arn	-7383
▁Afghan	-7384
AF	-7385
▁painting	-7386
▁rings	-7387
▁reaching	-7388
▁administrative	-7389
▁Fa	-7390
▁Harvard	-7391
▁vul	-7392
otype	-7393
▁Introdu	-7394
▁roof	-7395
RL	-7396
▁Maria	-7397
▁considering	-7398
▁Rang	-7399
▁perspective	-7400
vo	-7401
vironments	-7402
▁Get	-7403
▁argued	-7404
▁census	-7405
▁denoted	-7406
▁McG	-7407
▁vocal	-7408
▁sounds	-7409
▁manufacturing	-7410
▁mal	-7411
▁thin	-7412
▁funding	-7413
▁SP	-7414
▁Whe	-7415
▁unf	-7416
rac	-7417
▁Analysis	-7418
Eng	-7419
▁historian	-7420
▁References	-7421
▁Mit	-7422
▁shut	-7423
▁Stock	-7424
▁metric	-7425
agan	-7426
▁reign	-7427
▁compare	-7428
▁km	-7429
▁seats	-7430
▁Ron	-7431
▁mac	-7432
▁Sunday	-7433
III	-7434
▁concluded	-7435
▁stability	-7436
▁Dif	-7437
▁dangerous	-7438
▁decomposition	-7439
zym	-7440
RI	-7441
▁rivers	-7442
▁Appro	-7443
▁parliament	-7444
▁contributed	-7445
▁gal	-7446
chron	-7447
▁crops	-7448
uable	-7449
▁identical	-7450
▁nav	-7451
▁unus	-7452
▁brown	-7453
▁speak	-7454
▁indeed	-7455
uties	-7456
▁⊢	-7457
▁Foreign	-7458
oven	-7459
▁Where	-7460
▁captain	-7461
▁Drag	-7462
edu	-7463
▁Malays	-7464
▁retire	-7465
ques	-7466
cons	-7467
▁defic	-7468
▁tower	-7469
▁Hamilton	-7470
▁composer	-7471
anna	-7472
▁Bask	-7473
▁ri	-7474
▁vide	-7475
▁deriv	-7476
▁coverage	-7477
▁pollution	-7478
▁depression	-7479
irt	-7480
▁champion	-7481
LP	-7482
▁Stadium	-7483
▁Agricult	-7484
▁prediction	-7485
▁statistics	-7486
▁dependent	-7487
▁Dick	-7488
▁CH	-7489
▁dates	-7490
aine	-7491
elve	-7492
▁difficulty	-7493
▁restaur	-7494
▁arc	-7495
▁corner	-7496
▁shel	-7497
▁inhabitants	-7498
▁resc	-7499
▁crow	-7500
ographical	-7501
▁lung	-7502
uma	-7503
▁Nob	-7504
▁pseud	-7505
▁driving	-7506
▁corresponds	-7507
▁seek	-7508
▁properly	-7509
▁Soc	-7510
▁titled	-7511
▁committee	-7512
▁universal	-7513
▁Gord	-7514
▁salt	-7515
▁broke	-7516
ho	-7517
incess	-7518
▁accounts	-7519
▁clinical	-7520
▁Hou	-7521
▁Kentucky	-7522
▁investigation	-7523
▁structural	-7524
omot	-7525
▁preced	-7526
mediate	-7527
▁invasion	-7528
▁mining	-7529
▁analog	-7530
ushed	-7531
▁paths	-7532
▁symbols	-7533
▁frequent	-7534
▁institution	-7535
dule	-7536
▁concerned	-7537
▁estimator	-7538
▁installed	-7539
▁buy	-7540
▁Career	-7541
bound	-7542
▁winners	-7543
▁assessment	-7544
▁Fri	-7545
ordan	-7546
▁portray	-7547
issance	-7548
ship	-7549
▁query	-7550
▁MD	-7551
▁breast	-7552
▁reviews	-7553
▁Tai	-7554
▁pilot	-7555
▁marine	-7556
▁returning	-7557
▁ruled	-7558
pre	-7559
▁gradient	-7560
▁Stra	-7561
▁Songs	-7562
idge	-7563
▁tum	-7564
▁computers	-7565
▁doi	-7566
phone	-7567
▁fans	-7568
▁keeping	-7569
oples	-7570
▁sin	-7571
ivate	-7572
ellect	-7573
name	-7574
power	-7575
▁Brother	-7576
▁Machine	-7577
▁essentially	-7578
athy	-7579
▁Cer	-7580
▁Ins	-7581
burn	-7582
▁Fame	-7583
▁killing	-7584
soft	-7585
▁diverse	-7586
care	-7587
plicated	-7588
▁configuration	-7589
▁bronze	-7590
▁responsibility	-7591
▁Ot	-7592
onom	-7593
rell	-7594
▁attacked	-7595
▁aspect	-7596
▁camera	-7597
rition	-7598
onsin	-7599
▁Pier	-7600
▁constitu	-7601
▁drums	-7602
ommod	-7603
▁waves	-7604
▁participated	-7605
▁contributions	-7606
▁volunte	-7607
▁Hans	-7608
▁Support	-7609
▁Record	-7610
▁restricted	-7611
▁gap	-7612
▁stem	-7613
▁lists	-7614
umptions	-7615
▁ecosystem	-7616
roit	-7617
▁helping	-7618
▁Bib	-7619
▁Legisl	-7620
▁kilomet	-7621
▁decor	-7622
oly	-7623
yles	-7624
oking	-7625
▁tight	-7626
▁Temple	-7627
isconsin	-7628
▁supports	-7629
restling	-7630
▁bear	-7631
▁substit	-7632
··	-7633
▁chapter	-7634
▁expensive	-7635
etime	-7636
▁viewed	-7637
▁journalist	-7638
▁circle	-7639
▁Call	-7640
▁faculty	-7641
▁grown	-7642
ski	-7643
▁laid	-7644
▁robot	-7645
▁crucial	-7646
▁exception	-7647
ropy	-7648
▁Howard	-7649
OT	-7650
action	-7651
▁conventional	-7652
▁housing	-7653
achel	-7654
▁door	-7655
▁journey	-7656
▁Exam	-7657
RS	-7658
rating	-7659
▁Hop	-7660
▁decline	-7661
▁exceed	-7662
▁Pict	-7663
hedule	-7664
▁Gram	-7665
▁bought	-7666
▁happened	-7667
athe	-7668
▁ille	-7669
▁Maryland	-7670
▁Magn	-7671
▁credit	-7672
▁disappe	-7673
▁photograph	-7674
▁Wang	-7675
▁namely	-7676
▁theatre	-7677
▁standing	-7678
olve	-7679
▁chrom	-7680
▁Lev	-7681
▁facts	-7682
▁Anderson	-7683
▁facilit	-7684
▁somewhat	-7685
▁lov	-7686
orney	-7687
▁Chile	-7688
▁Brun	-7689
▁Indones	-7690
▁bits	-7691
▁secure	-7692
▁consequence	-7693
sis	-7694
▁manage	-7695
▁environments	-7696
▁medalists	-7697
▁Abd	-7698
▁Kat	-7699
▁physics	-7700
Bl	-7701
lik	-7702
▁Windows	-7703
▁Place	-7704
▁contribution	-7705
)).	-7706
Net	-7707
ocracy	-7708
▁procedures	-7709
ls	-7710
ogether	-7711
▁Squadron	-7712
▁Indians	-7713
▁decrease	-7714
▁necessarily	-7715
olas	-7716
▁Brad	-7717
▁Mand	-7718
▁rect	-7719
▁potentially	-7720
▁chronic	-7721
iva	-7722
▁judge	-7723
▁rational	-7724
theless	-7725
graph	-7726
▁Story	-7727
osph	-7728
▁magnetic	-7729
sub	-7730
cker	-7731
▁Type	-7732
▁myth	-7733
▁Om	-7734
osion	-7735
▁texts	-7736
▁classified	-7737
iments	-7738
▁ment	-7739
▁sons	-7740
▁obst	-7741
▁purchase	-7742
▁Fred	-7743
▁Unlike	-7744
▁Hur	-7745
▁molecules	-7746
▁closer	-7747
▁Tax	-7748
▁overs	-7749
▁Nat	-7750
▁hierarch	-7751
▁haz	-7752
▁Harry	-7753
▁gather	-7754
▁hydrogen	-7755
fri	-7756
ographer	-7757
▁Wisconsin	-7758
▁conclusion	-7759
"),	-7760
▁AI	-7761
▁lect	-7762
▁seeds	-7763
uv	-7764
▁kernel	-7765
aga	-7766
▁Alan	-7767
▁filled	-7768
▁Communications	-7769
using	-7770
lywood	-7771
▁irre	-7772
▁moves	-7773
▁Soft	-7774
▁Dougl	-7775
▁manip	-7776
▁farmers	-7777
▁Alab	-7778
▁mand	-7779
▁Proble	-7780
▁dynasty	-7781
▁recru	-7782
hr	-7783
sex	-7784
▁veloc	-7785
▁refuge	-7786
▁usage	-7787
▁Chapter	-7788
▁castle	-7789
oen	-7790
pread	-7791
▁wins	-7792
▁hydro	-7793
▁infer	-7794
aron	-7795
▁Lyn	-7796
▁studying	-7797
▁Ped	-7798
endix	-7799
▁kinds	-7800
▁usual	-7801
sequently	-7802
olished	-7803
▁Political	-7804
▁Read	-7805
after	-7806
▁demonstrate	-7807
▁adaptation	-7808
▁crown	-7809
▁evaluate	-7810
▁briefly	-7811
but	-7812
▁shr	-7813
▁Greg	-7814
▁contribute	-7815
ikh	-7816
▁Ess	-7817
antine	-7818
ictionary	-7819
▁presentation	-7820
▁Lin	-7821
▁Sin	-7822
▁turb	-7823
ifer	-7824
▁breath	-7825
▁carrying	-7826
▁moder	-7827
▁confidence	-7828
▁Hig	-7829
▁incorporated	-7830
▁Eric	-7831
▁spin	-7832
▁programme	-7833
▁crisis	-7834
▁damaged	-7835
▁explains	-7836
▁Mas	-7837
space	-7838
▁hear	-7839
▁impossible	-7840
isely	-7841
▁Convention	-7842
▁flows	-7843
▁update	-7844
▁criminal	-7845
▁diver	-7846
zero	-7847
▁churches	-7848
▁Mountains	-7849
▁Organization	-7850
adow	-7851
▁cards	-7852
▁mapping	-7853
As	-7854
▁ve	-7855
overty	-7856
▁aggreg	-7857
▁characterized	-7858
▁semantics	-7859
On	-7860
▁que	-7861
▁Gib	-7862
▁Guide	-7863
▁commander	-7864
icate	-7865
▁Municip	-7866
comes	-7867
omorphic	-7868
▁matching	-7869
▁anyone	-7870
idespread	-7871
▁Na	-7872
apore	-7873
▁roads	-7874
▁spiritual	-7875
▁tur	-7876
▁induced	-7877
▁trigger	-7878
▁executed	-7879
▁entries	-7880
MC	-7881
▁custom	-7882
▁ln	-7883
▁abandoned	-7884
ippi	-7885
▁employees	-7886
▁Walter	-7887
▁Apple	-7888
nia	-7889
aired	-7890
▁canon	-7891
▁columns	-7892
▁landscape	-7893
ester	-7894
▁xn	-7895
▁Cape	-7896
▁investment	-7897
▁demonstrated	-7898
present	-7899
ometimes	-7900
ags	-7901
▁mathematics	-7902
apse	-7903
▁Dark	-7904
▁understood	-7905
cow	-7906
▁bands	-7907
▁Biography	-7908
▁emergency	-7909
▁races	-7910
▁unless	-7911
▁numerical	-7912
▁improvement	-7913
▁conven	-7914
lete	-7915
ensed	-7916
▁tank	-7917
▁variance	-7918
lah	-7919
▁supposed	-7920
▁assignment	-7921
ão	-7922
▁advent	-7923
▁recall	-7924
▁messages	-7925
uf	-7926
uscript	-7927
▁contest	-7928
mers	-7929
▁Shah	-7930
▁funds	-7931
▁infrastructure	-7932
▁commut	-7933
▁Hell	-7934
▁translated	-7935
▁	-7936
aked	-7937
▁Beg	-7938
▁festival	-7939
mus	-7940
▁DVD	-7941
▁intern	-7942
▁tick	-7943
pur	-7944
▁Ban	-7945
ée	-7946
▁...,	-7947
▁Environmental	-7948
▁stabil	-7949
trans	-7950
uating	-7951
aux	-7952
▁bot	-7953
herent	-7954
▁yards	-7955
▁satisfy	-7956
▁literary	-7957
▁Ni	-7958
▁reward	-7959
▁papers	-7960
▁Pi	-7961
▁ideals	-7962
▁feedback	-7963
▁Diego	-7964
▁artificial	-7965
▁Alabama	-7966
▁sudden	-7967
▁Islamic	-7968
▁establishment	-7969
▁transformation	-7970
▁vessels	-7971
▁settings	-7972
▁beautiful	-7973
▁graduated	-7974
▁integrated	-7975
▁Mi	-7976
▁mit	-7977
▁abuse	-7978
▁solving	-7979
▁recept	-7980
▁boys	-7981
agonal	-7982
▁veter	-7983
▁spatial	-7984
▁Apollo	-7985
%,	-7986
▁charged	-7987
▁brothers	-7988
▁Assume	-7989
▁pictures	-7990
▁replacing	-7991
▁session	-7992
▁profile	-7993
▁classic	-7994
▁consisted	-7995
owa	-7996
▁Member	-7997
▁induction	-7998
▁Burn	-7999
aro	-8000
▁consecutive	-8001
▁Manu	-8002
cyclop	-8003
estyle	-8004
▁Ottoman	-8005
▁arguments	-8006
regon	-8007
▁accum	-8008
▁files	-8009
▁accommod	-8010
Con	-8011
▁justice	-8012
▁Gab	-8013
ussion	-8014
▁theater	-8015
▁Prior	-8016
▁throw	-8017
▁lose	-8018
▁bishop	-8019
▁thousand	-8020
▁governments	-8021
▁≡	-8022
▁Whit	-8023
▁racing	-8024
itzerland	-8025
▁recur	-8026
fficients	-8027
)]	-8028
isk	-8029
▁managers	-8030
▁meat	-8031
▁Hawai	-8032
▁Quest	-8033
▁biggest	-8034
▁speaking	-8035
▁cognitive	-8036
zed	-8037
▁vice	-8038
ibilities	-8039
▁percentage	-8040
▁neighbour	-8041
▁courses	-8042
▁entitled	-8043
▁∅	-8044
oom	-8045
arsh	-8046
▁forming	-8047
▁Administration	-8048
oren	-8049
▁Gulf	-8050
ardens	-8051
▁Mississ	-8052
▁OF	-8053
▁survive	-8054
▁diagnosis	-8055
▁maintenance	-8056
inch	-8057
stances	-8058
odox	-8059
ogeneous	-8060
▁virtual	-8061
▁consequences	-8062
eenth	-8063
▁Those	-8064
▁Danish	-8065
▁superior	-8066
▁prohib	-8067
▁recurs	-8068
iah	-8069
▁drawing	-8070
▁indicated	-8071
DS	-8072
▁ing	-8073
▁colonial	-8074
▁algebraic	-8075
▁rom	-8076
▁?	-8077
▁isn	-8078
▁concert	-8079
icide	-8080
olt	-8081
ortion	-8082
▁Domin	-8083
▁infections	-8084
iki	-8085
▁wear	-8086
je	-8087
▁Number	-8088
▁jun	-8089
▁undert	-8090
▁Track	-8091
▁shortly	-8092
▁Ψ	-8093
▁poem	-8094
▁Labour	-8095
▁documentary	-8096
▁sail	-8097
▁assistance	-8098
raine	-8099
▁Roll	-8100
▁CA	-8101
▁IC	-8102
▁pig	-8103
▁participate	-8104
▁diox	-8105
▁sell	-8106
▁trip	-8107
rin	-8108
▁myster	-8109
ublin	-8110
▁Buck	-8111
▁considerable	-8112
rant	-8113
▁rival	-8114
▁Product	-8115
▁cup	-8116
Ex	-8117
▁abund	-8118
▁interactions	-8119
▁rub	-8120
plant	-8121
▁Jane	-8122
▁empir	-8123
▁venues	-8124
▁Phot	-8125
▁handle	-8126
▁feas	-8127
▁Forces	-8128
▁Transactions	-8129
▁faced	-8130
▁Alb	-8131
▁thread	-8132
iversary	-8133
▁Detroit	-8134
ml	-8135
▁mos	-8136
▁Deep	-8137
▁Ra	-8138
▁engaged	-8139
▁Nick	-8140
▁ham	-8141
▁Nich	-8142
▁Upper	-8143
▁opinion	-8144
▁symmetric	-8145
▁Alexand	-8146
▁Cooper	-8147
▁generating	-8148
▁●	-8149
▁looks	-8150
▁coefficients	-8151
▁Cab	-8152
▁Chang	-8153
▁Silver	-8154
▁tooth	-8155
▁tribes	-8156
▁discipl	-8157
Don	-8158
▁courts	-8159
▁tropical	-8160
itter	-8161
▁Ice	-8162
▁voltage	-8163
awn	-8164
erly	-8165
million	-8166
▁curren	-8167
▁induct	-8168
▁widespread	-8169
▁prompt	-8170
▁Upon	-8171
▁stochastic	-8172
▁raise	-8173
run	-8174
▁flowers	-8175
eness	-8176
▁SC	-8177
▁pray	-8178
▁Jordan	-8179
▁educated	-8180
▁Bor	-8181
▁Cow	-8182
▁conclude	-8183
BI	-8184
▁Oak	-8185
▁Magazine	-8186
▁Lis	-8187
▁Singapore	-8188
▁Basketball	-8189
▁advoc	-8190
▁toler	-8191
▁descend	-8192
ums	-8193
▁Exec	-8194
▁fossil	-8195
▁Switzerland	-8196
▁vo	-8197
asts	-8198
LC	-8199
▁tons	-8200
▁Oregon	-8201
▁−→	-8202
esis	-8203
▁Neb	-8204
▁Battalion	-8205
▁theoretical	-8206
▁occas	-8207
▁arrested	-8208
▁prisoners	-8209
iser	-8210
▁cryst	-8211
▁mathematical	-8212
▁SR	-8213
▁neither	-8214
xiety	-8215
▁Ark	-8216
▁spectrum	-8217
▁orb	-8218
▁ζ	-8219
▁Rest	-8220
▁committed	-8221
uli	-8222
▁Sport	-8223
▁Eff	-8224
▁legislation	-8225
PR	-8226
▁Entertainment	-8227
.:	-8228
jective	-8229
▁nick	-8230
▁meters	-8231
cknowled	-8232
▁Statistics	-8233
▁Sac	-8234
▁bin	-8235
▁Orth	-8236
▁catch	-8237
▁vulner	-8238
▁absence	-8239
OL	-8240
apped	-8241
dered	-8242
ption	-8243
▁representations	-8244
ushing	-8245
▁Plant	-8246
▁childhood	-8247
▁FM	-8248
▁candidates	-8249
▁compounds	-8250
bean	-8251
iller	-8252
▁Pract	-8253
▁bones	-8254
▁affects	-8255
▁Denmark	-8256
").	-8257
▁scenes	-8258
▁Agency	-8259
▁Historical	-8260
▁latt	-8261
▁trav	-8262
▁worst	-8263
itals	-8264
▁hardware	-8265
▁Imperial	-8266
▁Trade	-8267
▁oppon	-8268
OM	-8269
▁choices	-8270
night	-8271
▁votes	-8272
▁diameter	-8273
▁mountains	-8274
orus	-8275
▁trace	-8276
ults	-8277
▁item	-8278
▁audio	-8279
▁accompan	-8280
▁statements	-8281
▁rear	-8282
▁Architect	-8283
▁transportation	-8284
▁flying	-8285
▁inference	-8286
▁drinking	-8287
▁gradually	-8288
▁Doctor	-8289
▁syndrome	-8290
opt	-8291
▁tract	-8292
▁theories	-8293
▁mechanisms	-8294
▁topics	-8295
▁Anthony	-8296
▁arrival	-8297
▁hors	-8298
▁Google	-8299
▁math	-8300
▁operators	-8301
▁businesses	-8302
▁Inn	-8303
▁advice	-8304
leveland	-8305
aming	-8306
case	-8307
▁aqu	-8308
▁sixth	-8309
▁promotion	-8310
▁Dak	-8311
▁mob	-8312
▁males	-8313
▁excellent	-8314
ontin	-8315
▁Federation	-8316
yard	-8317
olph	-8318
▁Buff	-8319
▁atoms	-8320
▁familiar	-8321
cut	-8322
ycl	-8323
▁af	-8324
essions	-8325
▁hybrid	-8326
▁poetry	-8327
FM	-8328
aware	-8329
atters	-8330
▁calling	-8331
ateur	-8332
▁strike	-8333
▁Cel	-8334
▁grounds	-8335
inf	-8336
▁Lang	-8337
▁repair	-8338
▁fleet	-8339
ayer	-8340
▁losses	-8341
▁founding	-8342
sch	-8343
▁Territ	-8344
▁formally	-8345
▁alleged	-8346
EA	-8347
lov	-8348
▁Pap	-8349
othe	-8350
▁regime	-8351
▁Amaz	-8352
▁rocks	-8353
▁monarch	-8354
▁slowly	-8355
aration	-8356
▁offices	-8357
▁chose	-8358
▁Ta	-8359
▁bench	-8360
eland	-8361
▁offering	-8362
▁fishing	-8363
▁emotional	-8364
▁specified	-8365
▁IP	-8366
----	-8367
▁ahead	-8368
▁Dall	-8369
TC	-8370
▁critics	-8371
▁reduces	-8372
▁Relig	-8373
▁Rose	-8374
▁vitamin	-8375
▁dogs	-8376
Sp	-8377
▁Take	-8378
▁armed	-8379
▁liver	-8380
▁scores	-8381
▁isolated	-8382
▁closure	-8383
▁videos	-8384
▁feeling	-8385
▁Iron	-8386
anth	-8387
▁Based	-8388
▁toxic	-8389
▁crossing	-8390
▁pione	-8391
oded	-8392
▁females	-8393
▁organisms	-8394
▁agency	-8395
▁Fall	-8396
ecticut	-8397
▁Standard	-8398
oa	-8399
▁Kings	-8400
▁headquarters	-8401
▁Douglas	-8402
▁Da	-8403
anner	-8404
▁reader	-8405
Ph	-8406
▁Phill	-8407
▁routes	-8408
mi	-8409
▁pip	-8410
esides	-8411
▁Allen	-8412
▁memb	-8413
rays	-8414
▁Roberts	-8415
▁tack	-8416
▁sizes	-8417
▁Bowl	-8418
▁prices	-8419
▁supplies	-8420
▁pi	-8421
▁Rhod	-8422
▁wine	-8423
▁agree	-8424
▁falls	-8425
▁footballers	-8426
rolled	-8427
▁dioxide	-8428
▁vertical	-8429
elsh	-8430
▁pull	-8431
▁banks	-8432
▁compris	-8433
▁assembly	-8434
▁battery	-8435
▁Dave	-8436
▁guest	-8437
▁highlight	-8438
▁Start	-8439
▁Gun	-8440
▁entrance	-8441
▁centers	-8442
▁collaboration	-8443
▁Cru	-8444
urisd	-8445
▁Matthew	-8446
SC	-8447
▁Carib	-8448
▁Hum	-8449
▁satellite	-8450
▁Mississippi	-8451
▁mechanical	-8452
▁Jam	-8453
Hz	-8454
▁polar	-8455
agu	-8456
▁Patrick	-8457
orig	-8458
▁kidney	-8459
▁insects	-8460
▁completion	-8461
▁sale	-8462
▁Gordon	-8463
▁railroad	-8464
▁preserved	-8465
▁Cleveland	-8466
▁interface	-8467
▁references	-8468
▁spoken	-8469
▁monitoring	-8470
▁MA	-8471
itic	-8472
▁Ale	-8473
icular	-8474
▁Operation	-8475
grade	-8476
▁independently	-8477
acle	-8478
▁disp	-8479
▁Niger	-8480
▁Square	-8481
▁schedule	-8482
ante	-8483
▁Cond	-8484
uj	-8485
▁teen	-8486
▁Moscow	-8487
▁Honor	-8488
▁neurons	-8489
▁Cook	-8490
▁Digital	-8491
▁elementary	-8492
▁trap	-8493
▁Grant	-8494
▁Page	-8495
heastern	-8496
▁photos	-8497
▁´	-8498
▁Moore	-8499
▁Anne	-8500
▁heads	-8501
▁knew	-8502
hab	-8503
ymn	-8504
itivity	-8505
ogs	-8506
▁Proc	-8507
▁partially	-8508
▁Portugal	-8509
ishment	-8510
wick	-8511
▁Andre	-8512
▁assumptions	-8513
▁Od	-8514
▁Frederick	-8515
▁Connecticut	-8516
▁convolution	-8517
▁relax	-8518
▁dating	-8519
▁kingdom	-8520
▁Xi	-8521
gon	-8522
ultan	-8523
▁Access	-8524
adi	-8525
▁Trib	-8526
vens	-8527
ranean	-8528
▁scholar	-8529
▁aged	-8530
▁pret	-8531
insula	-8532
▁Affairs	-8533
imore	-8534
dy	-8535
▁looked	-8536
usalem	-8537
▁valley	-8538
▁enl	-8539
▁enzym	-8540
▁Father	-8541
▁popularity	-8542
▁replacement	-8543
UC	-8544
acks	-8545
aceae	-8546
▁beam	-8547
▁Quebec	-8548
▁fraction	-8549
▁ABC	-8550
▁engines	-8551
chi	-8552
▁fan	-8553
▁ampl	-8554
otal	-8555
▁Kam	-8556
▁notably	-8557
▁wheel	-8558
▁Lower	-8559
▁metab	-8560
▁lesson	-8561
▁Garden	-8562
▁delivered	-8563
▁Rap	-8564
▁Peace	-8565
▁fewer	-8566
▁Recent	-8567
▁substance	-8568
▁(−	-8569
▁Tan	-8570
lahoma	-8571
roscop	-8572
▁calculated	-8573
▁absolute	-8574
icip	-8575
eor	-8576
amps	-8577
▁airport	-8578
▁Small	-8579
▁worship	-8580
▁rebu	-8581
▁Queensland	-8582
▁experts	-8583
▁backing	-8584
▁intellect	-8585
body	-8586
osaurus	-8587
▁dominant	-8588
▁equipped	-8589
door	-8590
▁Ern	-8591
▁Gene	-8592
▁Lawrence	-8593
hus	-8594
▁phone	-8595
▁reactions	-8596
Ne	-8597
▁Study	-8598
▁Article	-8599
▁Champions	-8600
▁suffering	-8601
zz	-8602
encing	-8603
▁Roger	-8604
bach	-8605
mont	-8606
bes	-8607
▁Ever	-8608
▁Colomb	-8609
▁Confeder	-8610
▁Christopher	-8611
▁Online	-8612
▁HIV	-8613
▁neck	-8614
▁pitch	-8615
ented	-8616
▁comfort	-8617
▁Hit	-8618
erving	-8619
▁decide	-8620
ulates	-8621
▁traject	-8622
▁Unit	-8623
▁risks	-8624
▁ha	-8625
▁quot	-8626
uerto	-8627
▁Heritage	-8628
▁ju	-8629
▁sensitive	-8630
▁sharing	-8631
iday	-8632
▁presents	-8633
▁Transportation	-8634
gra	-8635
▁oral	-8636
▁sacr	-8637
agle	-8638
▁Farm	-8639
▁legend	-8640
iac	-8641
RE	-8642
▁fill	-8643
▁instructions	-8644
▁Louisiana	-8645
▁Dur	-8646
▁interv	-8647
▁Ancient	-8648
▁mixture	-8649
▁VI	-8650
▁merged	-8651
▁definitions	-8652
▁ble	-8653
▁guns	-8654
▁musician	-8655
▁encourage	-8656
forward	-8657
▁destruction	-8658
that	-8659
angel	-8660
)"	-8661
▁Tokyo	-8662
rand	-8663
rama	-8664
▁essay	-8665
▁moral	-8666
▁strictly	-8667
owned	-8668
▁Fried	-8669
▁precisely	-8670
▁Amb	-8671
kh	-8672
▁PM	-8673
▁survival	-8674
▁duty	-8675
▁scoring	-8676
▁approximate	-8677
gressive	-8678
▁Training	-8679
▁passenger	-8680
cal	-8681
▁Boys	-8682
▁milit	-8683
▁Dublin	-8684
▁Places	-8685
▁Christianity	-8686
▁boat	-8687
▁Bry	-8688
▁Blood	-8689
rison	-8690
▁soul	-8691
▁Oklahoma	-8692
▁Beh	-8693
▁Hug	-8694
elian	-8695
▁displ	-8696
▁markets	-8697
avel	-8698
dist	-8699
▁scope	-8700
itative	-8701
▁wel	-8702
▁injuries	-8703
shop	-8704
esian	-8705
▁Cry	-8706
ashed	-8707
▁Notable	-8708
▁Kl	-8709
fortunately	-8710
▁caught	-8711
▁debate	-8712
▁trials	-8713
▁existed	-8714
uary	-8715
▁Heb	-8716
▁Rugby	-8717
▁surfaces	-8718
▁explanation	-8719
rium	-8720
▁Java	-8721
▁gate	-8722
elson	-8723
▁clim	-8724
▁dust	-8725
ruption	-8726
▁peoples	-8727
▁Dise	-8728
▁Crown	-8729
▁dense	-8730
▁velocity	-8731
world	-8732
abs	-8733
▁Samuel	-8734
▁survived	-8735
▁eigen	-8736
▁expedition	-8737
▁Ali	-8738
SR	-8739
▁Bou	-8740
▁subt	-8741
▁valuable	-8742
non	-8743
opes	-8744
arest	-8745
erted	-8746
▁evolved	-8747
regular	-8748
▁identification	-8749
▁Jerusalem	-8750
▁Cho	-8751
▁Imp	-8752
▁Arabic	-8753
▁flower	-8754
▁supplement	-8755
▁awareness	-8756
▁Make	-8757
▁Tele	-8758
▁colony	-8759
▁struggle	-8760
▁comprehensive	-8761
atus	-8762
▁boundaries	-8763
▁merch	-8764
▁bat	-8765
▁Fisher	-8766
▁enable	-8767
aders	-8768
riers	-8769
▁moon	-8770
▁inhib	-8771
▁creates	-8772
▁(),	-8773
▁rejected	-8774
▁hill	-8775
▁modules	-8776
▁sparse	-8777
▁charges	-8778
▁GP	-8779
▁hired	-8780
df	-8781
rage	-8782
▁herself	-8783
▁propose	-8784
▁molecular	-8785
▁Hills	-8786
die	-8787
istent	-8788
▁FA	-8789
▁Ent	-8790
rients	-8791
▁Zhang	-8792
▁vital	-8793
▁Hindu	-8794
GA	-8795
▁giant	-8796
▁Without	-8797
▁Liver	-8798
▁driven	-8799
▁slaves	-8800
▁universities	-8801
▁Box	-8802
▁Ka	-8803
UN	-8804
''	-8805
▁Puerto	-8806
▁infected	-8807
▁THE	-8808
▁Culture	-8809
▁instant	-8810
▁Houston	-8811
▁Years	-8812
▁Liberal	-8813
▁curriculum	-8814
itudes	-8815
▁Proper	-8816
▁competed	-8817
idelines	-8818
▁turning	-8819
▁Recall	-8820
▁unusual	-8821
▁agencies	-8822
▁recognize	-8823
▁Staff	-8824
▁circumstances	-8825
▁aired	-8826
▁lyrics	-8827
▁Pitts	-8828
▁Atlanta	-8829
▁Mission	-8830
▁reserve	-8831
orf	-8832
▁Orchestra	-8833
▁Byz	-8834
▁spend	-8835
▁Dream	-8836
oys	-8837
▁Il	-8838
etric	-8839
ez	-8840
▁Annual	-8841
▁Pear	-8842
▁ages	-8843
▁rhyth	-8844
▁Publishing	-8845
▁nest	-8846
▁Image	-8847
lock	-8848
▁singular	-8849
mail	-8850
▁Swiss	-8851
▁impacts	-8852
/(	-8853
phony	-8854
▁Late	-8855
▁Pa	-8856
offs	-8857
ontal	-8858
▁Nazi	-8859
▁fract	-8860
▁precise	-8861
▁variations	-8862
▁investigate	-8863
▁Introduction	-8864
▁mor	-8865
avery	-8866
▁Welsh	-8867
▁stopped	-8868
▁hits	-8869
▁McK	-8870
▁inflamm	-8871
uster	-8872
▁disestab	-8873
uber	-8874
▁Austrian	-8875
▁Kevin	-8876
▁chemicals	-8877
▁Bart	-8878
▁fold	-8879
▁involve	-8880
▁Bruce	-8881
iability	-8882
▁nerve	-8883
▁hem	-8884
▁simultaneously	-8885
sts	-8886
▁Satur	-8887
▁poverty	-8888
▁retirement	-8889
▁visitors	-8890
ficial	-8891
▁manuscript	-8892
▁accompanied	-8893
▁magnitude	-8894
▁operates	-8895
▁Holl	-8896
▁philos	-8897
▁Economic	-8898
▁Doc	-8899
casting	-8900
▁particle	-8901
uda	-8902
▁scal	-8903
▁judg	-8904
▁illustrated	-8905
uity	-8906
estine	-8907
owing	-8908
Fig	-8909
▁Sky	-8910
▁Antar	-8911
sup	-8912
▁Within	-8913
▁server	-8914
arks	-8915
hess	-8916
▁Johann	-8917
onian	-8918
▁Fal	-8919
▁coinc	-8920
▁substantial	-8921
▁Ky	-8922
▁Protest	-8923
▁Volume	-8924
▁Franklin	-8925
▁LP	-8926
▁Imm	-8927
▁bip	-8928
▁passage	-8929
▁tot	-8930
▁Five	-8931
▁Alfred	-8932
▁Collins	-8933
▁Tit	-8934
creen	-8935
▁chairman	-8936
▁compilation	-8937
▁metres	-8938
rot	-8939
ista	-8940
▁operational	-8941
cha	-8942
▁Yu	-8943
DC	-8944
▁py	-8945
▁trail	-8946
▁enhance	-8947
▁Full	-8948
▁Nik	-8949
ensis	-8950
▁Hil	-8951
▁ai	-8952
▁temporary	-8953
▁subsid	-8954
▁membership	-8955
▁Mes	-8956
▁odd	-8957
▁nan	-8958
▁sket	-8959
▁prev	-8960
▁projection	-8961
▁assault	-8962
▁convention	-8963
ING	-8964
▁Tun	-8965
▁da	-8966
▁modeling	-8967
▁communications	-8968
▁†	-8969
▁Musical	-8970
formed	-8971
▁geometry	-8972
ouver	-8973
▁Camer	-8974
▁Rand	-8975
making	-8976
▁scenario	-8977
▁varieties	-8978
▁bases	-8979
▁drink	-8980
▁fault	-8981
▁significance	-8982
▁inputs	-8983
▁feelings	-8984
▁twelve	-8985
▁longest	-8986
▁iteration	-8987
div	-8988
▁Dead	-8989
▁Pra	-8990
▁jurisd	-8991
▁latest	-8992
▁ceremony	-8993
dale	-8994
▁readers	-8995
▁conscious	-8996
▁colleagues	-8997
▁Vo	-8998
▁smallest	-8999
isp	-9000
▁dies	-9001
▁recon	-9002
▁Reserve	-9003
▁sky	-9004
▁Anim	-9005
▁rows	-9006
▁controls	-9007
apolis	-9008
umps	-9009
▁tub	-9010
eling	-9011
▁clock	-9012
▁seeing	-9013
▁subgroups	-9014
▁likelihood	-9015
▁clar	-9016
▁differential	-9017
▁Advent	-9018
▁franch	-9019
word	-9020
?"	-9021
▁strip	-9022
▁Baltimore	-9023
▁bringing	-9024
▁withdraw	-9025
▁producers	-9026
▁neighb	-9027
▁PS	-9028
▁disturb	-9029
▁satisfying	-9030
▁expressions	-9031
▁Mess	-9032
▁Rick	-9033
▁sight	-9034
▁Emer	-9035
▁Russell	-9036
▁lowest	-9037
▁Register	-9038
▁Horn	-9039
▁territories	-9040
▁rooms	-9041
ía	-9042
▁Tig	-9043
▁variant	-9044
gs	-9045
▁comic	-9046
otton	-9047
▁factory	-9048
▁provincial	-9049
▁decay	-9050
enny	-9051
▁hotel	-9052
prison	-9053
▁Chair	-9054
▁concerning	-9055
sim	-9056
▁expatri	-9057
stan	-9058
▁opera	-9059
▁automatically	-9060
▁Las	-9061
▁ownership	-9062
gow	-9063
▁Prop	-9064
▁dream	-9065
▁regression	-9066
▁integration	-9067
ounced	-9068
▁landing	-9069
iterranean	-9070
▁rarely	-9071
▁Defense	-9072
▁Edin	-9073
▁Production	-9074
ften	-9075
style	-9076
▁sensors	-9077
▁gone	-9078
▁reaches	-9079
▁cultures	-9080
▁Argentina	-9081
▁Dal	-9082
▁laboratory	-9083
▁participation	-9084
aza	-9085
oslav	-9086
▁Philippines	-9087
▁hang	-9088
▁phenomenon	-9089
▁horm	-9090
▁Chall	-9091
▁Disney	-9092
▁criteria	-9093
▁tact	-9094
▁indigenous	-9095
▁suit	-9096
▁atomic	-9097
▁medieval	-9098
raham	-9099
▁Less	-9100
▁Altern	-9101
▁priest	-9102
▁celebrated	-9103
▁dimensions	-9104
ser	-9105
▁Computing	-9106
▁Bed	-9107
▁Stew	-9108
▁scientist	-9109
ffee	-9110
▁stead	-9111
▁Alberta	-9112
ci	-9113
▁±	-9114
▁updated	-9115
▁traditions	-9116
wich	-9117
▁compete	-9118
▁chlor	-9119
▁schemes	-9120
▁Karl	-9121
ulator	-9122
▁Tar	-9123
▁resemb	-9124
▁Benj	-9125
ardo	-9126
▁Egyptian	-9127
pp	-9128
▁Cole	-9129
▁stick	-9130
▁Antonio	-9131
▁Nag	-9132
▁Sri	-9133
uin	-9134
▁Angel	-9135
▁Yet	-9136
▁Event	-9137
▁Century	-9138
▁CC	-9139
You	-9140
inema	-9141
▁answers	-9142
▁legs	-9143
▁acids	-9144
cred	-9145
▁terror	-9146
▁conjug	-9147
▁rising	-9148
▁protocol	-9149
▁Alaska	-9150
▁threatened	-9151
ello	-9152
▁Prom	-9153
▁lawyer	-9154
▁entering	-9155
▁stronger	-9156
Com	-9157
ymph	-9158
▁treatments	-9159
uzz	-9160
▁moist	-9161
▁belongs	-9162
▁defensive	-9163
▁favour	-9164
▁divisions	-9165
▁Ian	-9166
▁Creat	-9167
▁Express	-9168
▁retained	-9169
uting	-9170
▁adequ	-9171
▁paintings	-9172
rus	-9173
▁hur	-9174
▁faces	-9175
antasy	-9176
▁Dallas	-9177
▁slave	-9178
▁Caribbean	-9179
▁nominated	-9180
▁distinguish	-9181
▁Pas	-9182
▁Have	-9183
▁vaccine	-9184
ben	-9185
▁Arn	-9186
▁Encyclop	-9187
▁Christians	-9188
▁maintaining	-9189
▁Ay	-9190
▁similarly	-9191
▁([	-9192
rank	-9193
bolic	-9194
▁Cass	-9195
▁Kennedy	-9196
▁anxiety	-9197
eur	-9198
new	-9199
▁Clear	-9200
▁galax	-9201
▁recordings	-9202
▁Afghanistan	-9203
▁regulations	-9204
▁Belgium	-9205
▁attributed	-9206
▁Cart	-9207
▁Muham	-9208
▁Harris	-9209
▁Invest	-9210
▁rose	-9211
▁Glas	-9212
▁municipal	-9213
din	-9214
▁Comics	-9215
IF	-9216
terior	-9217
▁Brigade	-9218
ogram	-9219
posium	-9220
▁celebr	-9221
conn	-9222
▁Neg	-9223
▁conditional	-9224
▁Hi	-9225
oder	-9226
haust	-9227
season	-9228
▁NS	-9229
▁rit	-9230
▁earthqu	-9231
▁improving	-9232
▁requirement	-9233
▁relief	-9234
▁summar	-9235
▁restored	-9236
ouses	-9237
▁sharp	-9238
▁Vin	-9239
▁Palace	-9240
▁Cemetery	-9241
▁printed	-9242
▁ISBN	-9243
▁outl	-9244
▁radical	-9245
▁ranges	-9246
▁remote	-9247
asp	-9248
iami	-9249
▁spr	-9250
▁fulf	-9251
rection	-9252
▁connecting	-9253
▁Mediterranean	-9254
▁Nort	-9255
▁compat	-9256
▁directions	-9257
▁Mond	-9258
current	-9259
Ad	-9260
▁sick	-9261
▁generator	-9262
oca	-9263
▁targets	-9264
▁Survey	-9265
▁Railroad	-9266
ureau	-9267
ancouver	-9268
ressive	-9269
▁Examples	-9270
▁scheduled	-9271
▁shapes	-9272
▁colonies	-9273
▁Lieutenant	-9274
▁Independent	-9275
PC	-9276
▁minute	-9277
▁residence	-9278
▁Eq	-9279
▁renov	-9280
Man	-9281
eting	-9282
▁appearing	-9283
▁Intelligence	-9284
▁describing	-9285
▁intermediate	-9286
▁triple	-9287
▁compens	-9288
▁proposal	-9289
▁anch	-9290
bb	-9291
iology	-9292
▁hunting	-9293
If	-9294
mouth	-9295
father	-9296
▁penalty	-9297
▁terminal	-9298
▁Bush	-9299
▁occasionally	-9300
ratic	-9301
▁Term	-9302
▁Iowa	-9303
▁Brazilian	-9304
.),	-9305
phy	-9306
▁recre	-9307
▁duties	-9308
▁competitive	-9309
▁emerged	-9310
ohn	-9311
▁Programming	-9312
▁Hend	-9313
▁Bangl	-9314
▁satisfied	-9315
▁…	-9316
step	-9317
▁Mrs	-9318
▁streets	-9319
wen	-9320
▁muscles	-9321
General	-9322
▁drivers	-9323
▁creative	-9324
▁Herm	-9325
▁delivery	-9326
▁sustainable	-9327
▁Iss	-9328
ilst	-9329
▁Girls	-9330
▁suffer	-9331
▁Lam	-9332
▁fur	-9333
ariate	-9334
▁wireless	-9335
uct	-9336
▁Wing	-9337
▁arranged	-9338
▁Map	-9339
omed	-9340
▁panel	-9341
eff	-9342
▁Laure	-9343
▁vegetables	-9344
ega	-9345
▁stood	-9346
▁exploration	-9347
AB	-9348
▁Finn	-9349
▁edited	-9350
▁passengers	-9351
▁UC	-9352
▁Action	-9353
bel	-9354
▁Hem	-9355
▁Lith	-9356
▁Armenian	-9357
▁separation	-9358
argo	-9359
▁rely	-9360
▁Meanwhile	-9361
uce	-9362
▁ca	-9363
▁Graph	-9364
eton	-9365
▁walking	-9366
▁Princess	-9367
aze	-9368
cor	-9369
▁challenging	-9370
▁Bull	-9371
otten	-9372
▁Dakota	-9373
▁Buildings	-9374
CAA	-9375
▁buff	-9376
▁Lanc	-9377
▁missions	-9378
odge	-9379
▁responses	-9380
▁Utah	-9381
▁Cultural	-9382
▁assemb	-9383
▁electro	-9384
iop	-9385
▁hal	-9386
olia	-9387
▁Rain	-9388
▁cattle	-9389
▁Gallery	-9390
▁associate	-9391
▁Speed	-9392
▁intensity	-9393
elli	-9394
▁cutting	-9395
▁actresses	-9396
▁victims	-9397
▁accessible	-9398
▁residential	-9399
raska	-9400
▁shore	-9401
isations	-9402
▁Lan	-9403
▁WW	-9404
▁Senior	-9405
▁respective	-9406
▁CNN	-9407
▁Code	-9408
▁mart	-9409
▁wonder	-9410
▁protest	-9411
odium	-9412
▁Near	-9413
▁matters	-9414
▁dominated	-9415
▁Wright	-9416
▁lingu	-9417
▁Having	-9418
▁Infantry	-9419
▁encouraged	-9420
▁isot	-9421
▁varying	-9422
▁distances	-9423
▁Naval	-9424
▁coordinate	-9425
▁industries	-9426
▁Vancouver	-9427
AV	-9428
IL	-9429
▁Rub	-9430
onomy	-9431
▁outbre	-9432
▁si	-9433
olly	-9434
▁Bulgar	-9435
▁copper	-9436
▁Liu	-9437
▁Treaty	-9438
▁desire	-9439
▁Edinburgh	-9440
▁empirical	-9441
keley	-9442
▁Trad	-9443
▁inverse	-9444
ilib	-9445
▁distinguished	-9446
plicity	-9447
eta	-9448
▁)(	-9449
▁cited	-9450
▁compound	-9451
▁improvements	-9452
idal	-9453
rophy	-9454
isition	-9455
▁Murray	-9456
▁yourself	-9457
▁Processing	-9458
▁Knight	-9459
olid	-9460
▁Alt	-9461
▁helpful	-9462
▁Benjamin	-9463
who	-9464
etics	-9465
▁((	-9466
▁ongoing	-9467
▁Representatives	-9468
ials	-9469
ependence	-9470
▁Elementary	-9471
▁explicitly	-9472
aton	-9473
heric	-9474
▁cycles	-9475
star	-9476
ipped	-9477
▁Muhammad	-9478
▁bio	-9479
▁imprison	-9480
▁certainly	-9481
otte	-9482
▁accused	-9483
▁Pittsburgh	-9484
ulin	-9485
▁ordinary	-9486
MM	-9487
▁wants	-9488
▁Germans	-9489
▁injured	-9490
▁Appendix	-9491
idity	-9492
▁comments	-9493
onds	-9494
▁tube	-9495
▁millions	-9496
idth	-9497
▁Albums	-9498
oustic	-9499
borough	-9500
▁proportion	-9501
▁Aqu	-9502
▁invariant	-9503
▁uniformly	-9504
thetic	-9505
▁adaptive	-9506
▁Hind	-9507
▁Neural	-9508
izers	-9509
boards	-9510
song	-9511
abric	-9512
▁intent	-9513
▁Face	-9514
oda	-9515
▁mayor	-9516
▁Nav	-9517
▁Microsoft	-9518
▁Hollywood	-9519
▁inaug	-9520
▁chemistry	-9521
▁squad	-9522
▁Motor	-9523
▁grows	-9524
▁marks	-9525
▁Markov	-9526
▁defines	-9527
▁download	-9528
▁UE	-9529
▁surren	-9530
▁removal	-9531
▁stating	-9532
▁Liverpool	-9533
▁retail	-9534
▁northeast	-9535
▁illegal	-9536
▁difficulties	-9537
▁writes	-9538
▁hosts	-9539
▁Ltd	-9540
isons	-9541
▁Conservation	-9542
▁occupation	-9543
▁Malaysia	-9544
▁Much	-9545
ishers	-9546
▁Right	-9547
▁contam	-9548
gans	-9549
si	-9550
azines	-9551
abulary	-9552
▁Alban	-9553
ilation	-9554
▁BM	-9555
▁wish	-9556
▁reconstruction	-9557
▁Winn	-9558
istant	-9559
▁evening	-9560
▁conversion	-9561
▁equivalence	-9562
▁Wy	-9563
▁Sax	-9564
Ind	-9565
▁Miami	-9566
▁Juan	-9567
▁Vers	-9568
▁furn	-9569
▁shock	-9570
▁Abstract	-9571
hn	-9572
▁Billboard	-9573
What	-9574
▁Jay	-9575
▁lattice	-9576
▁trivial	-9577
▁surrounded	-9578
▁EM	-9579
east	-9580
▁lessons	-9581
gener	-9582
▁directors	-9583
For	-9584
▁CS	-9585
borne	-9586
▁Amendment	-9587
fly	-9588
quir	-9589
▁une	-9590
▁prepare	-9591
▁complicated	-9592
▁sufficiently	-9593
▁Wol	-9594
▁nutrients	-9595
▁hyp	-9596
▁debt	-9597
▁Billy	-9598
▁cable	-9599
▁Orthodox	-9600
▁Throughout	-9601
▁fiber	-9602
▁Primary	-9603
▁continuing	-9604
ervoir	-9605
▁attain	-9606
CH	-9607
phal	-9608
▁tort	-9609
▁thanks	-9610
▁Pun	-9611
▁Climate	-9612
▁tiny	-9613
ported	-9614
All	-9615
hma	-9616
▁Yug	-9617
▁libr	-9618
▁width	-9619
▁northwest	-9620
▁push	-9621
▁inclusion	-9622
▁DO	-9623
▁horses	-9624
▁Rd	-9625
▁Abraham	-9626
▁mineral	-9627
’,	-9628
▁unlike	-9629
▁whenever	-9630
▁generalized	-9631
▁anten	-9632
▁generic	-9633
▁posterior	-9634
▁fertil	-9635
▁},	-9636
friend	-9637
▁derive	-9638
▁styles	-9639
▁deleg	-9640
▁graduate	-9641
▁Fem	-9642
normal	-9643
uccess	-9644
▁Daily	-9645
▁detected	-9646
▁internet	-9647
prise	-9648
▁jazz	-9649
▁predicted	-9650
lad	-9651
▁smart	-9652
wall	-9653
▁applies	-9654
FS	-9655
▁hole	-9656
bridge	-9657
▁battles	-9658
▁singing	-9659
▁aw	-9660
gart	-9661
▁Gon	-9662
asive	-9663
▁animated	-9664
▁View	-9665
▁Youth	-9666
▁revers	-9667
▁windows	-9668
▁Nebraska	-9669
oyd	-9670
▁disch	-9671
▁joining	-9672
▁swimming	-9673
Tr	-9674
▁Mind	-9675
ferent	-9676
▁influential	-9677
▁commissioned	-9678
PL	-9679
cm	-9680
▁collections	-9681
▁Professional	-9682
▁Thompson	-9683
▁Construction	-9684
sea	-9685
▁raw	-9686
▁suppose	-9687
▁wildlife	-9688
▁emperor	-9689
eterm	-9690
▁occurring	-9691
▁Protection	-9692
▁remainder	-9693
▁swit	-9694
▁thereby	-9695
▁Look	-9696
▁glac	-9697
▁skill	-9698
▁generations	-9699
▁Hebrew	-9700
▁Luther	-9701
hematic	-9702
▁Vik	-9703
▁inspir	-9704
▁Technical	-9705
host	-9706
▁credited	-9707
ishops	-9708
▁extends	-9709
▁Inv	-9710
▁Jess	-9711
▁outcome	-9712
▁underground	-9713
▁cub	-9714
▁entropy	-9715
▁Electric	-9716
▁asymptotic	-9717
cht	-9718
▁photo	-9719
▁thermal	-9720
▁annually	-9721
▁breeding	-9722
▁abilities	-9723
▁involvement	-9724
▁stroke	-9725
▁Finland	-9726
▁heritage	-9727
▁employment	-9728
ributes	-9729
▁analyze	-9730
▁determin	-9731
▁insurance	-9732
▁admin	-9733
ocy	-9734
▁pix	-9735
▁quantity	-9736
▁preferred	-9737
VID	-9738
aman	-9739
▁pref	-9740
▁adm	-9741
▁successor	-9742
▁farming	-9743
DE	-9744
ethe	-9745
▁Austin	-9746
▁Glasgow	-9747
bing	-9748
▁worse	-9749
▁invited	-9750
DR	-9751
▁Vic	-9752
▁beach	-9753
▁warming	-9754
▁DJ	-9755
▁Nep	-9756
▁arrangement	-9757
▁assass	-9758
▁Fell	-9759
▁Alice	-9760
▁Executive	-9761
▁exhibition	-9762
▁wars	-9763
▁origins	-9764
▁Nash	-9765
▁parks	-9766
▁poison	-9767
▁logical	-9768
value	-9769
▁dress	-9770
▁fruits	-9771
▁Educational	-9772
uction	-9773
▁proven	-9774
▁Nevertheless	-9775
▁voted	-9776
▁colleges	-9777
▁Var	-9778
▁dismiss	-9779
▁neutral	-9780
▁Frid	-9781
bow	-9782
▁Democr	-9783
UT	-9784
▁Persian	-9785
flow	-9786
▁outcomes	-9787
▁	-9788
▁fest	-9789
▁loan	-9790
▁tied	-9791
▁naval	-9792
▁Walker	-9793
▁intervention	-9794
ipher	-9795
▁meets	-9796
▁anniversary	-9797
▁ranging	-9798
▁Has	-9799
▁Cold	-9800
▁exhaust	-9801
▁preparation	-9802
atever	-9803
▁wooden	-9804
fts	-9805
▁Nord	-9806
NC	-9807
▁nurs	-9808
▁reverse	-9809
ahn	-9810
ugs	-9811
▁Vit	-9812
▁Reading	-9813
▁Broadway	-9814
▁receives	-9815
▁rotation	-9816
▁∇	-9817
▁gang	-9818
▁exhibit	-9819
▁datasets	-9820
▁guarantee	-9821
▁partnership	-9822
▁Put	-9823
enger	-9824
▁Ko	-9825
aneous	-9826
fare	-9827
▁Singh	-9828
▁fairly	-9829
rik	-9830
cho	-9831
▁appeal	-9832
▁desert	-9833
▁finishing	-9834
inian	-9835
▁customers	-9836
▁offensive	-9837
uy	-9838
foot	-9839
person	-9840
▁butter	-9841
▁Commer	-9842
▁correlation	-9843
▁platforms	-9844
▁bias	-9845
▁argue	-9846
▁Communist	-9847
inning	-9848
▁Vienna	-9849
▁Bomb	-9850
▁Margaret	-9851
rele	-9852
▁Buddhist	-9853
▁deployed	-9854
▁tracking	-9855
▁virtually	-9856
bras	-9857
▁biology	-9858
▁clusters	-9859
▁restrictions	-9860
▁liv	-9861
angle	-9862
▁Norman	-9863
▁kick	-9864
▁bridges	-9865
▁license	-9866
▁removing	-9867
▁MC	-9868
arth	-9869
▁Cuba	-9870
▁Urban	-9871
▁tribe	-9872
▁partly	-9873
▁locomot	-9874
▁stack	-9875
▁],	-9876
ailand	-9877
▁tow	-9878
attan	-9879
duced	-9880
ashi	-9881
lon	-9882
rows	-9883
▁Donald	-9884
▁Laboratory	-9885
zh	-9886
oba	-9887
▁aims	-9888
▁Bernard	-9889
▁Monte	-9890
uri	-9891
▁spending	-9892
▁coordinates	-9893
ayan	-9894
▁solved	-9895
claimed	-9896
▁Morris	-9897
▁intervals	-9898
▁Tel	-9899
icing	-9900
▁Along	-9901
onomous	-9902
▁Male	-9903
▁encl	-9904
▁Morgan	-9905
▁Taiwan	-9906
▁phrase	-9907
iece	-9908
▁Hud	-9909
▁ingred	-9910
▁Gran	-9911
▁Chart	-9912
▁registered	-9913
chell	-9914
▁behaviors	-9915
▁newspapers	-9916
▁establishing	-9917
asa	-9918
▁fasc	-9919
ascular	-9920
▁Strate	-9921
▁depicted	-9922
▁evolutionary	-9923
▁Maur	-9924
▁fictional	-9925
uality	-9926
ometric	-9927
▁champions	-9928
mented	-9929
▁Ryan	-9930
▁starring	-9931
▁begun	-9932
▁beliefs	-9933
▁admitted	-9934
▁evaluated	-9935
complete	-9936
etary	-9937
▁generators	-9938
aire	-9939
ders	-9940
▁Fern	-9941
▁plain	-9942
defined	-9943
▁Collection	-9944
uum	-9945
emor	-9946
▁shares	-9947
▁chamber	-9948
sterdam	-9949
▁Spirit	-9950
shaped	-9951
▁Robinson	-9952
▁personality	-9953
▁Aer	-9954
opter	-9955
▁Jose	-9956
▁apprec	-9957
▁	-9958
▁(,	-9959
ilder	-9960
▁elsewhere	-9961
▁Kit	-9962
▁Yang	-9963
▁mine	-9964
▁aimed	-9965
▁Sometimes	-9966
arus	-9967
▁tries	-9968
iph	-9969
▁phosph	-9970
▁historians	-9971
▁isomorphism	-9972
unar	-9973
▁Kaz	-9974
▁Dance	-9975
page	-9976
▁scatter	-9977
▁Mother	-9978
▁predom	-9979
▁clothing	-9980
▁permission	-9981
hom	-9982
▁Bey	-9983
▁Sultan	-9984
▁premier	-9985
▁feasible	-9986
▁empire	-9987
PT	-9988
died	-9989
▁Policy	-9990
▁mini	-9991
▁treaty	-9992
avalry	-9993
ictions	-9994
oni	-9995
path	-9996
▁boost	-9997
NR	-9998
Comm	-9999
▁seeking	-10000
▁uncertainty	-10001
▁wider	-10002
▁preval	-10003
▁static	-10004
▁assets	-10005
▁radius	-10006
▁facing	-10007
▁EU	-10008
▁Multi	-10009
▁singers	-10010
▁Stewart	-10011
▁prey	-10012
▁weekly	-10013
▁falling	-10014
▁feeding	-10015
▁embedding	-10016
▁allerg	-10017
▁focuses	-10018
ailability	-10019
NT	-10020
▁”	-10021
▁Dra	-10022
▁Seattle	-10023
▁reasoning	-10024
és	-10025
▁reveals	-10026
emen	-10027
▁Row	-10028
▁Pack	-10029
▁Dynam	-10030
▁Vision	-10031
▁accord	-10032
overy	-10033
▁declined	-10034
▁vow	-10035
aughters	-10036
▁selling	-10037
▁Tak	-10038
▁provision	-10039
▁apparently	-10040
▁Chand	-10041
▁automatic	-10042
▁displayed	-10043
▁struck	-10044
▁Scientific	-10045
▁AL	-10046
▁Industrial	-10047
▁Mong	-10048
▁inches	-10049
▁Alliance	-10050
▁Authority	-10051
▁Dat	-10052
▁Inte	-10053
IR	-10054
▁CT	-10055
▁listing	-10056
▁Hungarian	-10057
▁doctors	-10058
▁nitrogen	-10059
▁restoration	-10060
anger	-10061
ricane	-10062
▁	-10063
▁click	-10064
▁Jason	-10065
▁assert	-10066
uis	-10067
rooms	-10068
▁Prob	-10069
enz	-10070
▁wed	-10071
adic	-10072
▁optical	-10073
▁marginal	-10074
enez	-10075
▁mild	-10076
olo	-10077
▁junior	-10078
▁advis	-10079
▁convert	-10080
gus	-10081
EG	-10082
ando	-10083
▁analys	-10084
NS	-10085
▁steam	-10086
disc	-10087
othy	-10088
iture	-10089
▁thoughts	-10090
At	-10091
▁Gary	-10092
▁Cher	-10093
▁planets	-10094
▁sees	-10095
▁Grade	-10096
▁Diocese	-10097
▁integers	-10098
acles	-10099
▁Wu	-10100
uclear	-10101
▁communicate	-10102
▁%	-10103
▁varies	-10104
▁Kra	-10105
▁Michel	-10106
▁breaking	-10107
▁Bud	-10108
endar	-10109
▁Angl	-10110
▁Berkeley	-10111
cs	-10112
eping	-10113
gebras	-10114
olving	-10115
▁merely	-10116
▁shorter	-10117
tz	-10118
joint	-10119
▁dimensional	-10120
lem	-10121
▁resigned	-10122
▁Athens	-10123
▁Bapt	-10124
▁Occ	-10125
▁Bron	-10126
▁fired	-10127
▁slavery	-10128
▁earn	-10129
▁Sarah	-10130
▁serial	-10131
▁Capital	-10132
▁Around	-10133
▁preserve	-10134
▁addressed	-10135
▁acknowled	-10136
▁Legislative	-10137
▁cort	-10138
▁defining	-10139
▁AB	-10140
achment	-10141
▁demands	-10142
bishop	-10143
▁intention	-10144
▁nonlinear	-10145
orient	-10146
▁Round	-10147
▁Until	-10148
▁laser	-10149
▁trading	-10150
▁PA	-10151
asant	-10152
▁stom	-10153
▁forth	-10154
idance	-10155
via	-10156
▁Bureau	-10157
▁Originally	-10158
▁competitions	-10159
away	-10160
osaurs	-10161
▁calcium	-10162
▁Thailand	-10163
▁Fun	-10164
▁temporal	-10165
asm	-10166
▁Physical	-10167
▁alphabet	-10168
▁Merc	-10169
▁lob	-10170
▁vot	-10171
▁cash	-10172
ref	-10173
uru	-10174
illo	-10175
rose	-10176
▁Clin	-10177
atherine	-10178
▁carefully	-10179
str	-10180
▁entity	-10181
▁pointed	-10182
leton	-10183
▁Vice	-10184
▁Scientists	-10185
▁publications	-10186
ión	-10187
▁unp	-10188
▁Barry	-10189
▁themes	-10190
sters	-10191
▁lock	-10192
elfare	-10193
▁Montreal	-10194
▁CM	-10195
▁Isa	-10196
marks	-10197
▁Seven	-10198
▁drain	-10199
▁Marshall	-10200
▁Saturday	-10201
▁monaster	-10202
▁Unfortunately	-10203
fold	-10204
▁blind	-10205
▁headed	-10206
▁equally	-10207
▁recovered	-10208
▁reputation	-10209
▁Gor	-10210
▁Adams	-10211
▁kit	-10212
▁afford	-10213
▁ranking	-10214
▁measuring	-10215
▁Architecture	-10216
rove	-10217
▁Ran	-10218
▁vic	-10219
▁triangle	-10220
)),	-10221
▁Ident	-10222
▁Compar	-10223
▁Symposium	-10224
▁Metropolitan	-10225
heimer	-10226
enter	-10227
▁wings	-10228
▁horizontal	-10229
▁municipalities	-10230
Wh	-10231
▁Wed	-10232
estone	-10233
▁belonging	-10234
▁harvest	-10235
▁Sud	-10236
▁affairs	-10237
▁seventh	-10238
▁Movement	-10239
.).	-10240
▁Freedom	-10241
▁Ye	-10242
▁Edition	-10243
▁domains	-10244
▁Applications	-10245
.'	-10246
▁É	-10247
avor	-10248
▁AND	-10249
▁Fro	-10250
angered	-10251
▁engage	-10252
▁specialized	-10253
▁Ry	-10254
▁Maj	-10255
▁Change	-10256
▁painted	-10257
hour	-10258
arios	-10259
▁fled	-10260
onymous	-10261
▁Software	-10262
▁regulation	-10263
▁Lost	-10264
▁jump	-10265
▁axis	-10266
▁Bangladesh	-10267
▁carries	-10268
▁presidential	-10269
▁Ga	-10270
aments	-10271
▁calculate	-10272
▁Performance	-10273
▁Phoen	-10274
ulatory	-10275
▁sentences	-10276
▁sheet	-10277
▁Arctic	-10278
▁dealing	-10279
ithm	-10280
amine	-10281
▁artillery	-10282
▁effectiveness	-10283
▁diagonal	-10284
asses	-10285
▁null	-10286
▁Grad	-10287
process	-10288
▁multip	-10289
▁Yugoslav	-10290
anton	-10291
▁Israeli	-10292
▁Ukraine	-10293
▁reliable	-10294
▁painter	-10295
HO	-10296
utt	-10297
▁Beat	-10298
▁controversy	-10299
GM	-10300
▁talking	-10301
▁cir	-10302
▁Baker	-10303
▁performs	-10304
▁controversial	-10305
illes	-10306
▁Lock	-10307
▁exponential	-10308
pen	-10309
▁excav	-10310
▁utility	-10311
▁Jefferson	-10312
olition	-10313
▁curves	-10314
acre	-10315
itory	-10316
▁Bulg	-10317
▁boot	-10318
▁quantities	-10319
▁franchise	-10320
ogonal	-10321
▁Geography	-10322
▁Hamp	-10323
▁mm	-10324
▁Graham	-10325
▁verb	-10326
▁controller	-10327
And	-10328
▁aug	-10329
▁NCAA	-10330
▁fever	-10331
oria	-10332
lag	-10333
ilibrium	-10334
▁minerals	-10335
▁cooperation	-10336
▁dens	-10337
engths	-10338
▁Lib	-10339
▁flash	-10340
communic	-10341
▁mixing	-10342
▁Hungary	-10343
she	-10344
named	-10345
▁Costa	-10346
▁coefficient	-10347
lings	-10348
▁engineers	-10349
ige	-10350
▁NC	-10351
▁physician	-10352
▁Nev	-10353
▁throne	-10354
!"	-10355
ostic	-10356
▁designer	-10357
▁Kum	-10358
redit	-10359
▁Peters	-10360
▁Academic	-10361
orms	-10362
▁Mayor	-10363
inv	-10364
▁NBA	-10365
▁cul	-10366
umping	-10367
▁requiring	-10368
’.	-10369
▁⇒	-10370
▁Dean	-10371
▁Nam	-10372
gression	-10373
▁correctly	-10374
▁Brand	-10375
▁Roc	-10376
▁Poly	-10377
▁Studios	-10378
▁attracted	-10379
dess	-10380
eral	-10381
▁Hotel	-10382
▁Additional	-10383
obi	-10384
▁Lag	-10385
▁Rhe	-10386
▁Fish	-10387
▁Bengal	-10388
▁monument	-10389
▁Commander	-10390
▁representatives	-10391
▁www	-10392
▁dated	-10393
▁precision	-10394
▁Mort	-10395
▁Future	-10396
▁pregnancy	-10397
Be	-10398
▁SL	-10399
▁interference	-10400
▁vessel	-10401
▁weapon	-10402
tha	-10403
▁Kan	-10404
▁erup	-10405
▁please	-10406
oga	-10407
ilding	-10408
mingham	-10409
▁efficiently	-10410
uki	-10411
zes	-10412
▁Johnny	-10413
▁traditionally	-10414
)−	-10415
▁Mans	-10416
▁wounded	-10417
▁spectral	-10418
▁surviving	-10419
imen	-10420
berry	-10421
▁Ax	-10422
▁filters	-10423
▁Oil	-10424
▁nerv	-10425
▁emphasis	-10426
▁Consequently	-10427
▁rid	-10428
▁Site	-10429
▁knock	-10430
▁informed	-10431
▁secretary	-10432
▁Ward	-10433
▁atom	-10434
ugg	-10435
iege	-10436
▁Brothers	-10437
▁criticism	-10438
▁medications	-10439
nt	-10440
achelor	-10441
▁discrimination	-10442
▁Resources	-10443
▁Nelson	-10444
▁amongst	-10445
▁electrons	-10446
▁migration	-10447
▁Provincial	-10448
pm	-10449
▁lasted	-10450
▁scales	-10451
▁receiver	-10452
▁distinction	-10453
▁Mack	-10454
▁Archae	-10455
▁beauty	-10456
▁rating	-10457
▁volumes	-10458
▁qualified	-10459
▁lakes	-10460
▁orientation	-10461
deg	-10462
▁Pay	-10463
▁Nation	-10464
▁viruses	-10465
oked	-10466
▁Pir	-10467
clusions	-10468
osophical	-10469
▁immigrants	-10470
▁Writing	-10471
anne	-10472
▁decreased	-10473
odia	-10474
▁dub	-10475
▁Past	-10476
▁Trail	-10477
placement	-10478
▁randomly	-10479
▁(;	-10480
plane	-10481
▁southeast	-10482
▁cous	-10483
▁Still	-10484
▁degrad	-10485
▁interpreted	-10486
▁photographs	-10487
occ	-10488
pres	-10489
▁Ground	-10490
▁organs	-10491
▁moderate	-10492
▁guitarist	-10493
acco	-10494
▁epid	-10495
▁Say	-10496
ocene	-10497
▁grammar	-10498
acts	-10499
Cy	-10500
▁Indonesia	-10501
▁compression	-10502
▁Rud	-10503
through	-10504
▁dispers	-10505
▁shooting	-10506
▁reflected	-10507
▁subsc	-10508
▁winds	-10509
▁Manh	-10510
▁labour	-10511
▁Student	-10512
▁tanks	-10513
▁labeled	-10514
FT	-10515
▁soldier	-10516
▁Bulgaria	-10517
▁//	-10518
▁Kap	-10519
overed	-10520
earing	-10521
hyd	-10522
lee	-10523
▁Aber	-10524
▁Cand	-10525
▁chap	-10526
▁examine	-10527
▁putting	-10528
▁artistic	-10529
▁publishing	-10530
▁Aren	-10531
▁Colonel	-10532
▁consensus	-10533
▁versus	-10534
▁summary	-10535
▁choosing	-10536
thal	-10537
▁casual	-10538
▁}.	-10539
hill	-10540
▁digest	-10541
abel	-10542
atty	-10543
▁Cox	-10544
▁rice	-10545
▁tunnel	-10546
▁Cou	-10547
▁influences	-10548
▁sweet	-10549
▁Ai	-10550
oons	-10551
▁José	-10552
▁blog	-10553
▁alleg	-10554
▁Physics	-10555
▁Symphony	-10556
▁printing	-10557
▁reconstruct	-10558
▁)|	-10559
▁Andy	-10560
▁chest	-10561
▁dollars	-10562
▁membrane	-10563
▁consideration	-10564
▁grades	-10565
▁reveal	-10566
▁squadron	-10567
−−	-10568
teenth	-10569
▁fitness	-10570
▁Encyclopedia	-10571
erts	-10572
Wales	-10573
▁Plot	-10574
▁integr	-10575
only	-10576
▁wat	-10577
;"|	-10578
▁Crow	-10579
▁Brist	-10580
▁crimes	-10581
▁synthesis	-10582
▁Ri	-10583
▁Appe	-10584
▁Lank	-10585
▁rounds	-10586
▁	-10587
iatric	-10588
........	-10589
oil	-10590
▁manufacturers	-10591
WA	-10592
ifice	-10593
▁divor	-10594
▁weighted	-10595
▁GT	-10596
orer	-10597
▁cere	-10598
abilistic	-10599
▁Tamil	-10600
▁Problem	-10601
▁psychological	-10602
▁Bak	-10603
▁Campbell	-10604
▁canonical	-10605
jecture	-10606
▁Fellows	-10607
▁Ti	-10608
▁Tree	-10609
▁Iranian	-10610
▁streams	-10611
▁releases	-10612
uros	-10613
▁Anna	-10614
′′	-10615
▁dramatic	-10616
▁cave	-10617
▁Wildlife	-10618
▁collapse	-10619
▁Ship	-10620
etition	-10621
▁embedded	-10622
▁BS	-10623
▁ES	-10624
oyal	-10625
▁knows	-10626
▁organisation	-10627
onder	-10628
▁advers	-10629
%%	-10630
▁Kelly	-10631
▁client	-10632
▁enables	-10633
▁Lud	-10634
▁intr	-10635
▁skull	-10636
▁listen	-10637
rous	-10638
▁suicide	-10639
▁Stanley	-10640
hl	-10641
yes	-10642
iliary	-10643
▁Birmingham	-10644
▁conservative	-10645
leans	-10646
▁spir	-10647
▁Notes	-10648
elligent	-10649
▁Bulgarian	-10650
▁vulnerable	-10651
mates	-10652
ivariate	-10653
▁Algebra	-10654
▁synchron	-10655
▁narrative	-10656
▁Tib	-10657
▁Poll	-10658
▁burning	-10659
adder	-10660
▁Nar	-10661
▁Crick	-10662
▁elabor	-10663
▁speakers	-10664
BL	-10665
▁coat	-10666
▁coffee	-10667
Col	-10668
ema	-10669
▁fro	-10670
▁Brooklyn	-10671
▁originated	-10672
▁scr	-10673
forms	-10674
▁Race	-10675
▁clot	-10676
▁compr	-10677
written	-10678
▁segments	-10679
▁similarity	-10680
▁Arkansas	-10681
igm	-10682
▁Resear	-10683
▁trouble	-10684
▁athletes	-10685
pring	-10686
▁Newton	-10687
▁intense	-10688
▁Brew	-10689
aved	-10690
pine	-10691
count	-10692
▁thorough	-10693
▁Tu	-10694
alg	-10695
▁sending	-10696
▁contradiction	-10697
▁Exp	-10698
▁carb	-10699
▁queries	-10700
▁ion	-10701
itting	-10702
▁annot	-10703
aping	-10704
▁holes	-10705
▁reasonable	-10706
▁vegetation	-10707
last	-10708
▁Croatia	-10709
▁Byzantine	-10710
auses	-10711
▁disput	-10712
eign	-10713
▁negoti	-10714
iodiversity	-10715
omal	-10716
▁seemed	-10717
▁diagnosed	-10718
▁beneficial	-10719
▁Concer	-10720
▁violent	-10721
▁marketing	-10722
▁examination	-10723
▁asking	-10724
acon	-10725
▁imper	-10726
lie	-10727
link	-10728
▁variants	-10729
▁Universal	-10730
omon	-10731
▁Guy	-10732
Us	-10733
▁fi	-10734
▁consumer	-10735
▁Victorian	-10736
▁Side	-10737
▁danger	-10738
▁Buffalo	-10739
▁Cohen	-10740
▁Mitchell	-10741
▁provinces	-10742
▁enjoyed	-10743
py	-10744
▁Alph	-10745
▁Hawaii	-10746
▁Literature	-10747
▁SA	-10748
▁pros	-10749
▁COVID	-10750
▁clustering	-10751
▁Fitz	-10752
vanced	-10753
▁Theod	-10754
▁adopt	-10755
boy	-10756
▁Pos	-10757
▁alive	-10758
negative	-10759
fr	-10760
ucl	-10761
▁rh	-10762
▁parad	-10763
▁hat	-10764
▁aren	-10765
▁cyl	-10766
ifiers	-10767
▁finger	-10768
▁judges	-10769
▁poems	-10770
▁indicating	-10771
▁constants	-10772
▁strategic	-10773
▁Disease	-10774
▁synthes	-10775
▁bag	-10776
athered	-10777
develop	-10778
▁Evolution	-10779
▁households	-10780
▁bears	-10781
▁intake	-10782
▁willing	-10783
▁transmitted	-10784
bus	-10785
▁southwest	-10786
▁Find	-10787
rained	-10788
▁ruling	-10789
▁Pruss	-10790
▁Commons	-10791
▁isomorphic	-10792
▁Ru	-10793
kov	-10794
▁Rat	-10795
▁Evans	-10796
htt	-10797
verage	-10798
▁Tower	-10799
▁quasi	-10800
▁guidelines	-10801
bul	-10802
▁Orleans	-10803
html	-10804
▁Rio	-10805
▁Columbus	-10806
▁pose	-10807
▁settlements	-10808
▁bath	-10809
▁Wayne	-10810
hetic	-10811
▁Charlie	-10812
▁settlers	-10813
▁respir	-10814
▁visiting	-10815
▁Amsterdam	-10816
imm	-10817
▁ton	-10818
ocket	-10819
width	-10820
▁approval	-10821
▁Lane	-10822
enberg	-10823
▁Level	-10824
▁unsuccess	-10825
▁determining	-10826
iotics	-10827
▁Napole	-10828
▁favorite	-10829
▁pump	-10830
Mar	-10831
anny	-10832
▁horn	-10833
achers	-10834
▁Griff	-10835
▁Index	-10836
▁Solar	-10837
hu	-10838
how	-10839
igo	-10840
▁stayed	-10841
▁Goth	-10842
▁Impro	-10843
▁consum	-10844
▁Laur	-10845
▁duration	-10846
▁Background	-10847
▁Verm	-10848
▁Greater	-10849
▁§	-10850
isb	-10851
▁thesis	-10852
ologically	-10853
emia	-10854
onies	-10855
▁default	-10856
▁gravity	-10857
▁handling	-10858
emed	-10859
overeign	-10860
rait	-10861
▁Networks	-10862
rupted	-10863
▁Wi	-10864
▁warning	-10865
▁hip	-10866
▁strings	-10867
▁flexible	-10868
▁invented	-10869
▁Gw	-10870
arged	-10871
▁licensed	-10872
▁investigated	-10873
IDS	-10874
▁wasn	-10875
▁Large	-10876
▁voting	-10877
▁tissues	-10878
▁interchange	-10879
▁Sr	-10880
owed	-10881
▁canal	-10882
▁thirty	-10883
ployment	-10884
▁minority	-10885
fire	-10886
rett	-10887
▁identifying	-10888
UR	-10889
▁tip	-10890
▁Shan	-10891
▁frequencies	-10892
▁CBS	-10893
▁Agriculture	-10894
▁infantry	-10895
▁email	-10896
avan	-10897
▁adds	-10898
▁gluc	-10899
▁supp	-10900
high	-10901
▁smoke	-10902
race	-10903
▁Anglo	-10904
▁Notice	-10905
▁stomach	-10906
▁advantages	-10907
▁transformed	-10908
▁kings	-10909
▁substances	-10910
▁lift	-10911
ré	-10912
▁Dub	-10913
▁Hudson	-10914
▁regardless	-10915
▁Cos	-10916
▁prede	-10917
istration	-10918
▁imperial	-10919
▁prevention	-10920
backs	-10921
▁realized	-10922
▁capabilities	-10923
asia	-10924
▁Kil	-10925
▁Carm	-10926
▁professionals	-10927
omorphisms	-10928
▁SO	-10929
▁Dog	-10930
▁soph	-10931
▁fusion	-10932
▁projective	-10933
▁meth	-10934
▁doubt	-10935
▁Wik	-10936
▁scan	-10937
▁Cancer	-10938
▁Individ	-10939
▁iterations	-10940
owder	-10941
▁Protestant	-10942
ods	-10943
cussion	-10944
▁mammals	-10945
▁counties	-10946
▁Rules	-10947
▁habitats	-10948
▁eliminated	-10949
HA	-10950
thon	-10951
▁yi	-10952
▁Had	-10953
▁Str	-10954
▁lar	-10955
▁Constant	-10956
cano	-10957
▁Rivers	-10958
▁tennis	-10959
▁topology	-10960
▁asc	-10961
▁oxid	-10962
▁heter	-10963
ör	-10964
▁Jonathan	-10965
▁criticized	-10966
irth	-10967
▁Patri	-10968
▁craft	-10969
▁cricketer	-10970
▁expatriate	-10971
▁exclusively	-10972
▁denied	-10973
▁hypothes	-10974
▁Athletics	-10975
▁zones	-10976
▁borders	-10977
▁sessions	-10978
elect	-10979
▁Player	-10980
▁funded	-10981
▁Officer	-10982
▁counterpart	-10983
▁disaster	-10984
▁convolutional	-10985
▁Tob	-10986
▁Safety	-10987
▁Writers	-10988
▁heating	-10989
▁teles	-10990
▁minimize	-10991
▁frog	-10992
▁filed	-10993
writing	-10994
▁Source	-10995
▁Results	-10996
▁fabric	-10997
opy	-10998
urable	-10999
▁Falls	-11000
▁Jimmy	-11001
hum	-11002
▁Ald	-11003
▁paras	-11004
▁Companies	-11005
▁crash	-11006
▁Flight	-11007
specific	-11008
▁restriction	-11009
";	-11010
profit	-11011
▁Did	-11012
▁instrumental	-11013
viously	-11014
▁straightforward	-11015
vy	-11016
▁pand	-11017
▁ranks	-11018
▁cricket	-11019
xy	-11020
agers	-11021
▁nose	-11022
▁Faculty	-11023
▁objectives	-11024
vol	-11025
▁bid	-11026
▁perceived	-11027
aha	-11028
▁rif	-11029
▁enters	-11030
▁Bot	-11031
plements	-11032
ups	-11033
▁Cov	-11034
▁tag	-11035
ricks	-11036
ductive	-11037
▁Together	-11038
▁constantly	-11039
▁cow	-11040
▁ML	-11041
alan	-11042
weet	-11043
erver	-11044
icial	-11045
ometry	-11046
▁truly	-11047
▁elevation	-11048
obs	-11049
▁Pil	-11050
owski	-11051
▁Village	-11052
ospitals	-11053
▁revenue	-11054
geon	-11055
▁tables	-11056
▁Steel	-11057
onomic	-11058
▁Larry	-11059
▁coding	-11060
empl	-11061
▁cellular	-11062
▁competing	-11063
▁bread	-11064
verseas	-11065
▁Aj	-11066
▁movies	-11067
▁waiting	-11068
▁Cathedral	-11069
▁Recogn	-11070
▁geometric	-11071
▁(·	-11072
oard	-11073
▁comed	-11074
)}	-11075
▁rib	-11076
about	-11077
▁Insp	-11078
▁Blues	-11079
▁extensively	-11080
▁Mathematical	-11081
▁NO	-11082
▁wait	-11083
▁Racing	-11084
▁Richmond	-11085
▁Rangers	-11086
▁jurisdiction	-11087
May	-11088
▁surprising	-11089
▁surn	-11090
▁Orange	-11091
▁Sak	-11092
cf	-11093
▁borrow	-11094
▁lifetime	-11095
▁Ll	-11096
▁Mechan	-11097
▁destination	-11098
▁Kle	-11099
▁Rav	-11100
▁mice	-11101
ducible	-11102
uto	-11103
auge	-11104
▁Diam	-11105
▁tends	-11106
▁dependence	-11107
▁vocabulary	-11108
▁advertising	-11109
EF	-11110
▁Lov	-11111
lights	-11112
▁simulations	-11113
taining	-11114
aurus	-11115
▁anthrop	-11116
istically	-11117
essed	-11118
▁semantic	-11119
intend	-11120
▁Chamber	-11121
▁Manhattan	-11122
fam	-11123
▁Salv	-11124
▁tone	-11125
▁Census	-11126
▁outputs	-11127
▁pitcher	-11128
hanced	-11129
▁crypt	-11130
▁Season	-11131
▁intellectual	-11132
▁Sid	-11133
isting	-11134
▁appointment	-11135
mid	-11136
▁resign	-11137
▁commemor	-11138
▁closest	-11139
▁starred	-11140
▁guidance	-11141
▁societies	-11142
ju	-11143
▁Check	-11144
================	-11145
bn	-11146
ateral	-11147
▁retrie	-11148
▁(µ	-11149
annon	-11150
istence	-11151
▁imaging	-11152
▁cm	-11153
ochem	-11154
gel	-11155
▁reun	-11156
▁tensor	-11157
Ed	-11158
▁package	-11159
▁scenarios	-11160
▁Path	-11161
▁Venez	-11162
▁Hitler	-11163
▁Terry	-11164
▁Friday	-11165
▁overw	-11166
▁Ukrain	-11167
▁pharm	-11168
riel	-11169
▁Ult	-11170
▁brick	-11171
urer	-11172
▁Carlos	-11173
▁frames	-11174
▁nervous	-11175
▁downtown	-11176
▁predecess	-11177
▁collective	-11178
just	-11179
▁Pad	-11180
▁camps	-11181
▁recycl	-11182
pol	-11183
▁trend	-11184
▁Nicholas	-11185
▁overcome	-11186
▁SM	-11187
▁chron	-11188
▁soccer	-11189
▁praised	-11190
▁hab	-11191
▁eliminate	-11192
▁Dictionary	-11193
Can	-11194
cat	-11195
▁indirect	-11196
UL	-11197
inery	-11198
▁Beck	-11199
▁Limited	-11200
▁inflammation	-11201
▁exclud	-11202
▁constitutional	-11203
aws	-11204
▁Calc	-11205
▁Ara	-11206
▁forg	-11207
My	-11208
▁Ivan	-11209
▁brings	-11210
▁posted	-11211
▁acres	-11212
▁Transl	-11213
▁resort	-11214
Northern	-11215
▁liberal	-11216
credited	-11217
cies	-11218
orrect	-11219
▁discontin	-11220
ixon	-11221
ierra	-11222
▁happy	-11223
▁publicly	-11224
▁orchestra	-11225
▁Cinc	-11226
▁Nova	-11227
▁Please	-11228
▁Tech	-11229
▁couns	-11230
▁Return	-11231
West	-11232
▁disk	-11233
▁monomial	-11234
nut	-11235
forced	-11236
▁adequate	-11237
▁suspended	-11238
▁fires	-11239
▁meetings	-11240
▁asks	-11241
▁saved	-11242
fi	-11243
ennial	-11244
▁decreases	-11245
tered	-11246
▁whilst	-11247
GS	-11248
sl	-11249
▁Carter	-11250
▁raising	-11251
▁lifestyle	-11252
PP	-11253
alph	-11254
strong	-11255
▁spoke	-11256
++	-11257
▁chromos	-11258
▁devoted	-11259
math	-11260
▁pert	-11261
▁Besides	-11262
▁composers	-11263
▁emotions	-11264
▁tut	-11265
▁venue	-11266
▁metals	-11267
pi	-11268
▁shield	-11269
▁Hyd	-11270
▁RNA	-11271
▁Gray	-11272
ubb	-11273
▁memor	-11274
▁confirm	-11275
▁permitted	-11276
▁covariance	-11277
▁GL	-11278
▁doors	-11279
▁Collect	-11280
fil	-11281
▁prosec	-11282
GBT	-11283
nan	-11284
▁anime	-11285
▁Private	-11286
▁kilometers	-11287
▁entertainment	-11288
▁expectation	-11289
▁formulation	-11290
▁Giants	-11291
▁picked	-11292
final	-11293
▁Anat	-11294
▁documented	-11295
▁Jazz	-11296
▁predominant	-11297
▁Independence	-11298
hentic	-11299
▁Chron	-11300
▁Bristol	-11301
▁Wrestling	-11302
▁polynomials	-11303
▁mood	-11304
▁medals	-11305
▁combine	-11306
ilty	-11307
▁Ages	-11308
▁Maine	-11309
▁Moses	-11310
▁Crim	-11311
▁stones	-11312
▁literacy	-11313
▁greenhouse	-11314
▁strengthen	-11315
▁fisher	-11316
▁Colombia	-11317
▁circular	-11318
agles	-11319
▁Anti	-11320
uxiliary	-11321
▁arrive	-11322
▁Researchers	-11323
rh	-11324
▁fra	-11325
▁defence	-11326
▁believes	-11327
lical	-11328
▁Azerb	-11329
ieth	-11330
▁margin	-11331
▁managing	-11332
▁examined	-11333
▁mi	-11334
▁bon	-11335
▁ske	-11336
▁Fu	-11337
▁Market	-11338
ubs	-11339
▁acquisition	-11340
TR	-11341
▁divis	-11342
▁preventing	-11343
▁Snow	-11344
▁sulf	-11345
▁Denver	-11346
▁varied	-11347
izz	-11348
uins	-11349
▁Joint	-11350
▁Azerbai	-11351
▁Muslims	-11352
irus	-11353
vable	-11354
▁persu	-11355
▁fu	-11356
inea	-11357
▁Chel	-11358
▁surprise	-11359
▁sitting	-11360
▁threats	-11361
▁restaurant	-11362
▁Rena	-11363
▁relating	-11364
▁Broadcasting	-11365
▁availability	-11366
aris	-11367
▁wal	-11368
▁accomp	-11369
▁Friends	-11370
Pl	-11371
▁Word	-11372
▁Woman	-11373
▁mounted	-11374
▁businessman	-11375
▁Sep	-11376
▁harmful	-11377
▁reporting	-11378
▁pole	-11379
▁wearing	-11380
▁Politics	-11381
▁flour	-11382
▁referring	-11383
▁cav	-11384
▁confront	-11385
▁Learn	-11386
▁relie	-11387
▁Allied	-11388
▁encomp	-11389
▁Romanian	-11390
▁everyday	-11391
▁Mall	-11392
pic	-11393
ogenic	-11394
▁Amazon	-11395
▁Sug	-11396
igate	-11397
vision	-11398
▁relay	-11399
▁rebell	-11400
▁Din	-11401
master	-11402
▁profit	-11403
▁cardinal	-11404
▁separately	-11405
▁ell	-11406
▁auto	-11407
▁Stars	-11408
▁extending	-11409
mentation	-11410
LU	-11411
mn	-11412
▁CEO	-11413
▁equilibrium	-11414
▁Stage	-11415
eme	-11416
▁proofs	-11417
▁preprint	-11418
▁writings	-11419
▁Pic	-11420
▁lens	-11421
▁magazines	-11422
uns	-11423
▁deeper	-11424
▁NI	-11425
▁Rot	-11426
gio	-11427
▁dict	-11428
▁genome	-11429
▁comprom	-11430
ede	-11431
esity	-11432
▁Biology	-11433
▁belonged	-11434
▁corporate	-11435
▁mathematic	-11436
▁Tol	-11437
itime	-11438
▁sentenced	-11439
▁Mix	-11440
▁Pierre	-11441
original	-11442
HD	-11443
▁pour	-11444
▁crowd	-11445
▁Conservative	-11446
▁developments	-11447
Or	-11448
▁nucleus	-11449
▁probabilities	-11450
▁Bass	-11451
▁mile	-11452
▁permit	-11453
▁precip	-11454
▁pupils	-11455
▁alternate	-11456
▁interactive	-11457
)||	-11458
cience	-11459
▁evident	-11460
innati	-11461
▁Maced	-11462
▁alumin	-11463
▁portrayed	-11464
▁Stu	-11465
igrated	-11466
▁combining	-11467
being	-11468
▁prize	-11469
▁activist	-11470
▁Leban	-11471
▁cooling	-11472
▁conflicts	-11473
agre	-11474
ewise	-11475
apor	-11476
esar	-11477
ashes	-11478
opal	-11479
▁dys	-11480
▁releg	-11481
▁distant	-11482
ecting	-11483
▁enorm	-11484
▁memorial	-11485
▁mutation	-11486
▁allocation	-11487
▁Keith	-11488
▁ruler	-11489
▁Territory	-11490
▁neighbors	-11491
gae	-11492
ourag	-11493
▁Sens	-11494
itively	-11495
▁Complex	-11496
▁conjunction	-11497
▁Name	-11498
▁signature	-11499
▁spacecraft	-11500
▁Vel	-11501
▁bab	-11502
▁lights	-11503
▁visits	-11504
auc	-11505
▁racial	-11506
▁medication	-11507
▁Lect	-11508
▁elig	-11509
▁nutrition	-11510
ourse	-11511
▁Advanced	-11512
▁rainfall	-11513
points	-11514
▁Admir	-11515
▁focusing	-11516
pin	-11517
ophy	-11518
▁Decl	-11519
▁retreat	-11520
En	-11521
later	-11522
▁Animal	-11523
▁bigger	-11524
feld	-11525
▁stops	-11526
▁routine	-11527
▁Salt	-11528
▁manga	-11529
▁submar	-11530
▁Gate	-11531
Pr	-11532
▁NG	-11533
▁evil	-11534
common	-11535
▁promoting	-11536
eda	-11537
▁Ruth	-11538
▁chick	-11539
▁Dragon	-11540
▁acoustic	-11541
▁defeating	-11542
mund	-11543
adian	-11544
const	-11545
enburg	-11546
▁Syria	-11547
▁attributes	-11548
▁PL	-11549
▁Fel	-11550
child	-11551
assador	-11552
________	-11553
▁erected	-11554
ei	-11555
▁≈	-11556
▁gases	-11557
▁closing	-11558
agraph	-11559
▁convey	-11560
▁⊥	-11561
▁pale	-11562
orious	-11563
rock	-11564
▁Lithuan	-11565
iw	-11566
first	-11567
▁Gard	-11568
▁lots	-11569
▁Confederate	-11570
param	-11571
akespe	-11572
▁collaps	-11573
▁gods	-11574
clusive	-11575
ün	-11576
aque	-11577
▁Bened	-11578
▁crossed	-11579
▁subgraph	-11580
oka	-11581
▁BCE	-11582
▁Sah	-11583
▁clause	-11584
▁friendly	-11585
▁implications	-11586
▁processed	-11587
▁drew	-11588
▁Clinton	-11589
▁derivative	-11590
▁reflection	-11591
this	-11592
▁palace	-11593
▁∨	-11594
nik	-11595
▁priority	-11596
etry	-11597
▁climb	-11598
▁smoking	-11599
▁departure	-11600
opl	-11601
▁CV	-11602
▁nearest	-11603
▁placing	-11604
▁CB	-11605
▁brig	-11606
ingham	-11607
▁illustrate	-11608
gov	-11609
mate	-11610
▁Claim	-11611
▁Fight	-11612
▁physic	-11613
iii	-11614
▁Lad	-11615
▁Object	-11616
▁Cincinnati	-11617
▁orthogonal	-11618
iler	-11619
▁Kos	-11620
▁replic	-11621
▁statue	-11622
▁activation	-11623
etal	-11624
actic	-11625
▁Standards	-11626
living	-11627
▁Minor	-11628
▁Players	-11629
▁Kur	-11630
▁farms	-11631
▁hazard	-11632
HC	-11633
ENT	-11634
▁caps	-11635
▁mutual	-11636
afe	-11637
▁Buddha	-11638
▁Township	-11639
▁emerging	-11640
▁periodic	-11641
▁Secondary	-11642
▁synthetic	-11643
ania	-11644
▁Arist	-11645
▁encoding	-11646
▁Bird	-11647
ielder	-11648
▁adoles	-11649
akespeare	-11650
▁photography	-11651
.|	-11652
▁Oliver	-11653
▁Turner	-11654
▁Knights	-11655
▁compatible	-11656
▁IT	-11657
mental	-11658
▁Branch	-11659
▁Venezuel	-11660
velt	-11661
▁Nan	-11662
▁Sic	-11663
▁clay	-11664
▁dent	-11665
▁ours	-11666
gic	-11667
▁Adela	-11668
▁aster	-11669
span	-11670
▁UEFA	-11671
▁gardens	-11672
aceous	-11673
▁beings	-11674
▁pregnant	-11675
▁mortality	-11676
gate	-11677
atics	-11678
cycle	-11679
▁panels	-11680
▁Relations	-11681
ás	-11682
▁wrest	-11683
▁occasions	-11684
▁hyperbolic	-11685
▁convicted	-11686
▁healthcare	-11687
▁neighboring	-11688
xk	-11689
▁OS	-11690
asma	-11691
There	-11692
eway	-11693
emies	-11694
▁credits	-11695
▁libraries	-11696
▁Others	-11697
atal	-11698
▁discussions	-11699
▁march	-11700
▁chains	-11701
▁alignment	-11702
▁soap	-11703
▁symp	-11704
DM	-11705
▁gran	-11706
▁Marie	-11707
▁Net	-11708
chest	-11709
▁cyclic	-11710
▁Stanford	-11711
én	-11712
yers	-11713
▁Hold	-11714
astics	-11715
▁Classic	-11716
▁Treatment	-11717
▁limitations	-11718
▁Grow	-11719
▁filmed	-11720
▁holiday	-11721
▁daughters	-11722
atoes	-11723
▁charts	-11724
wig	-11725
made	-11726
▁Sha	-11727
isdom	-11728
▁noble	-11729
▁prosp	-11730
▁graded	-11731
▁shaped	-11732
▁perception	-11733
▁Cell	-11734
▁Warren	-11735
▁therap	-11736
▁Storm	-11737
▁^	-11738
urated	-11739
▁gathered	-11740
▁earthquake	-11741
aran	-11742
▁Dod	-11743
▁Batman	-11744
IST	-11745
▁Ric	-11746
▁brow	-11747
bone	-11748
▁Susan	-11749
▁concentrated	-11750
▁Typ	-11751
▁transp	-11752
▁Peninsula	-11753
▁Romania	-11754
▁primitive	-11755
▁traveled	-11756
▁broadcasting	-11757
▁Yam	-11758
▁trick	-11759
itarian	-11760
▁Search	-11761
▁graphics	-11762
▁specification	-11763
ussels	-11764
▁Saints	-11765
▁burned	-11766
▁Present	-11767
▁displays	-11768
▁architectural	-11769
▁Material	-11770
▁inherited	-11771
rod	-11772
ipedia	-11773
▁Foster	-11774
▁claiming	-11775
▁reservoir	-11776
auer	-11777
▁Sad	-11778
▁LGBT	-11779
▁migr	-11780
▁breaks	-11781
▁regiment	-11782
▁Ori	-11783
ospel	-11784
▁Yellow	-11785
▁distinctive	-11786
OW	-11787
▁URL	-11788
▁Yank	-11789
▁ride	-11790
central	-11791
▁Wallace	-11792
▁descendants	-11793
▁permutation	-11794
▁exchang	-11795
▁consumers	-11796
iper	-11797
uates	-11798
▁junction	-11799
requ	-11800
▁torn	-11801
▁elevated	-11802
▁horror	-11803
▁promot	-11804
approxim	-11805
▁Champion	-11806
▁deposits	-11807
▁coc	-11808
▁Monday	-11809
▁Theater	-11810
▁Hampshire	-11811
▁comparing	-11812
▁rhythm	-11813
▁revised	-11814
▁sensitivity	-11815
▁Shakespeare	-11816
▁Wel	-11817
▁taxes	-11818
▁entities	-11819
▁encountered	-11820
▁].	-11821
▁tips	-11822
words	-11823
▁bare	-11824
▁missed	-11825
ulture	-11826
▁worker	-11827
▁multiplication	-11828
akia	-11829
▁Tag	-11830
▁Rico	-11831
▁Soon	-11832
▁Text	-11833
▁Heavy	-11834
▁Clay	-11835
▁helic	-11836
▁legit	-11837
▁concentrations	-11838
ín	-11839
▁Ein	-11840
▁Eug	-11841
▁honey	-11842
aternal	-11843
fiction	-11844
▁Borough	-11845
▁Being	-11846
▁↑	-11847
▁Joy	-11848
quiry	-11849
▁exclusive	-11850
▁boats	-11851
▁repeat	-11852
▁supporters	-11853
▁absorbed	-11854
▁timber	-11855
▁Cob	-11856
olves	-11857
▁Mason	-11858
▁Stein	-11859
▁Applied	-11860
▁Assumption	-11861
aplog	-11862
▁cuts	-11863
ometer	-11864
▁compan	-11865
▁enabled	-11866
▁NP	-11867
▁Fif	-11868
▁Sec	-11869
▁Financial	-11870
▁submitted	-11871
▁mature	-11872
▁whatever	-11873
char	-11874
▁spots	-11875
▁Deputy	-11876
oriented	-11877
▁traveling	-11878
▁Wa	-11879
amese	-11880
▁Josh	-11881
▁Bright	-11882
▁Trophy	-11883
▁circulation	-11884
To	-11885
▁Sex	-11886
racle	-11887
▁determines	-11888
abad	-11889
▁robots	-11890
▁sciences	-11891
oker	-11892
▁arise	-11893
▁anticip	-11894
▁historically	-11895
ét	-11896
▁Yale	-11897
▁overwhel	-11898
sa	-11899
▁outbreak	-11900
▁Southeast	-11901
▁afterwards	-11902
osevelt	-11903
▁divide	-11904
▁insect	-11905
▁additive	-11906
eo	-11907
aja	-11908
▁CF	-11909
▁PhD	-11910
▁devast	-11911
aplogroup	-11912
appy	-11913
rone	-11914
▁Nevada	-11915
▁Serbia	-11916
▁Population	-11917
▁().	-11918
▁fir	-11919
▁tie	-11920
▁attempting	-11921
two	-11922
arded	-11923
▁Soul	-11924
▁metabol	-11925
var	-11926
▁rescue	-11927
▁Barbara	-11928
▁fails	-11929
▁stere	-11930
ivan	-11931
iotic	-11932
▁Alumni	-11933
▁Pattern	-11934
▁amateur	-11935
▁initiated	-11936
tre	-11937
▁Adelaide	-11938
▁connects	-11939
▁repeatedly	-11940
▁Metro	-11941
▁Kids	-11942
▁Tigers	-11943
▁attorney	-11944
▁Ci	-11945
core	-11946
▁Peru	-11947
▁reception	-11948
best	-11949
enders	-11950
▁Eston	-11951
▁Neigh	-11952
▁insert	-11953
▁binding	-11954
▁Athletic	-11955
▁extensions	-11956
▁physically	-11957
▁genre	-11958
▁pounds	-11959
▁Different	-11960
ongue	-11961
▁Days	-11962
▁Kirk	-11963
▁plates	-11964
▁violin	-11965
overning	-11966
▁knowing	-11967
OD	-11968
▁Ide	-11969
▁bull	-11970
second	-11971
▁Ukrainian	-11972
maker	-11973
oro	-11974
▁{(	-11975
aning	-11976
▁lymph	-11977
▁Theore	-11978
▁outdoor	-11979
mal	-11980
fast	-11981
▁Drug	-11982
▁surviv	-11983
▁Nuclear	-11984
▁exercises	-11985
cca	-11986
▁bay	-11987
▁Slov	-11988
▁oblig	-11989
▁suggesting	-11990
▁championships	-11991
▁Pant	-11992
▁Astron	-11993
▁speaker	-11994
▁Renaissance	-11995
▁commutative	-11996
▁Self	-11997
▁exit	-11998
▁taste	-11999
▁manual	-12000
▁manufacturer	-12001
▁Quant	-12002
▁weaken	-12003
▁controlling	-12004
▁ov	-12005
▁Vas	-12006
riors	-12007
▁Mend	-12008
omical	-12009
▁reserves	-12010
▁confusion	-12011
▁decreasing	-12012
▁Horse	-12013
▁Serge	-12014
eon	-12015
▁export	-12016
graduate	-12017
▁Lap	-12018
andal	-12019
azing	-12020
▁register	-12021
▁Roosevelt	-12022
jab	-12023
imental	-12024
▁develops	-12025
▁Craig	-12026
white	-12027
▁Schem	-12028
▁immun	-12029
works	-12030
▁Conc	-12031
▁Jerry	-12032
expected	-12033
El	-12034
apters	-12035
ulu	-12036
iors	-12037
▁Wor	-12038
▁unw	-12039
▁behalf	-12040
▁Currently	-12041
▁screening	-12042
▁manufactured	-12043
(−	-12044
GE	-12045
▁bats	-12046
How	-12047
olics	-12048
▁fert	-12049
▁Celtic	-12050
▁balanced	-12051
▁organisations	-12052
▁rac	-12053
▁Hugh	-12054
▁HT	-12055
phib	-12056
▁Haz	-12057
▁bib	-12058
▁tea	-12059
▁Resp	-12060
isbane	-12061
▁portions	-12062
▁Ted	-12063
ceans	-12064
▁telling	-12065
ulas	-12066
▁Hope	-12067
▁tape	-12068
ylogen	-12069
▁Hunter	-12070
▁Frances	-12071
▁breathing	-12072
▁volunteers	-12073
****	-12074
▁glob	-12075
▁Milan	-12076
▁Define	-12077
missions	-12078
▁priests	-12079
▁na	-12080
▁carrier	-12081
▁publisher	-12082
his	-12083
Star	-12084
eded	-12085
length	-12086
▁quotient	-12087
Oct	-12088
enda	-12089
▁scar	-12090
algebra	-12091
▁shallow	-12092
▁initiative	-12093
▁NBC	-12094
▁acute	-12095
▁embry	-12096
▁privacy	-12097
▁democracy	-12098
folk	-12099
▁alien	-12100
▁subsets	-12101
▁Specifically	-12102
▁Brisbane	-12103
▁Operations	-12104
▁merc	-12105
▁Initially	-12106
oan	-12107
olester	-12108
▁trajectory	-12109
TP	-12110
▁SU	-12111
▁inhab	-12112
▁orange	-12113
▁Singles	-12114
▁overview	-12115
▁Gn	-12116
▁IF	-12117
▁Canal	-12118
▁readily	-12119
▁specimens	-12120
▁dissolved	-12121
▁phon	-12122
▁Formation	-12123
▁femin	-12124
▁Steven	-12125
ithmetic	-12126
liography	-12127
▁Industry	-12128
▁Philosophy	-12129
eyer	-12130
scill	-12131
estock	-12132
▁actively	-12133
▁analyzed	-12134
edge	-12135
abling	-12136
▁ninet	-12137
▁continuously	-12138
▁MR	-12139
stad	-12140
▁ski	-12141
▁ties	-12142
▁Eight	-12143
pop	-12144
▁ni	-12145
arium	-12146
▁Shaw	-12147
▁grain	-12148
▁possession	-12149
▁Phoenix	-12150
▁expanding	-12151
▁enthus	-12152
▁achievement	-12153
▁MPs	-12154
post	-12155
▁Belgian	-12156
▁homogeneous	-12157
▁Nut	-12158
values	-12159
▁diplom	-12160
▁Indigenous	-12161
▁Holland	-12162
▁glucose	-12163
green	-12164
▁probabilistic	-12165
haus	-12166
▁Trinity	-12167
ationally	-12168
▁xk	-12169
▁Core	-12170
▁editors	-12171
▁Planning	-12172
▁explored	-12173
front	-12174
▁considers	-12175
▁generates	-12176
likely	-12177
▁Arc	-12178
▁Hamm	-12179
▁Various	-12180
▁bes	-12181
station	-12182
▁telephone	-12183
▁introducing	-12184
▁Ç	-12185
▁supplied	-12186
entle	-12187
▁dispute	-12188
▁imposed	-12189
▁Len	-12190
stable	-12191
orporated	-12192
▁ordering	-12193
▁ESP	-12194
▁Ring	-12195
romagn	-12196
olation	-12197
▁battalion	-12198
▁Param	-12199
amation	-12200
▁excessive	-12201
▁evac	-12202
CR	-12203
boys	-12204
ivia	-12205
▁pin	-12206
ensen	-12207
▁Document	-12208
▁targeted	-12209
▁facilitate	-12210
▁complications	-12211
▁correspondence	-12212
arat	-12213
▁herb	-12214
▁Robin	-12215
▁cousin	-12216
▁phases	-12217
▁deterministic	-12218
▁Yi	-12219
▁Defence	-12220
▁Parks	-12221
▁Baptist	-12222
▁extinct	-12223
▁pandemic	-12224
▁Rele	-12225
▁Shel	-12226
▁Tang	-12227
▁marry	-12228
▁Parker	-12229
▁citizen	-12230
▁alk	-12231
irable	-12232
▁Single	-12233
▁updates	-12234
▁sunlight	-12235
Qu	-12236
etta	-12237
▁Sut	-12238
▁Herz	-12239
holders	-12240
▁Signal	-12241
▁signing	-12242
▁Glen	-12243
▁median	-12244
▁pretty	-12245
▁accessed	-12246
▁Challenge	-12247
▁ib	-12248
▁Bren	-12249
▁guilty	-12250
▁traces	-12251
▁adoption	-12252
▁responded	-12253
▁careful	-12254
▁compiled	-12255
▁Visual	-12256
▁tourism	-12257
▁confused	-12258
▁quadratic	-12259
▁denom	-12260
▁Harold	-12261
wright	-12262
▁eighth	-12263
▁Universe	-12264
rator	-12265
▁golf	-12266
arsity	-12267
metric	-12268
▁assuming	-12269
▁demolished	-12270
rov	-12271
▁ow	-12272
rene	-12273
▁acted	-12274
▁Convers	-12275
▁mainstream	-12276
▁Mut	-12277
▁Veh	-12278
▁fed	-12279
▁addresses	-12280
];	-12281
▁Bene	-12282
▁sediment	-12283
▁associations	-12284
▁archaeological	-12285
eto	-12286
▁Zone	-12287
found	-12288
▁cord	-12289
▁moments	-12290
▁indoor	-12291
▁peaked	-12292
?”	-12293
VM	-12294
▁Cut	-12295
▁Darwin	-12296
▁animation	-12297
▁irreducible	-12298
▁homomorphism	-12299
▁Ask	-12300
▁shortest	-12301
▁TR	-12302
amma	-12303
egas	-12304
▁Keep	-12305
▁worn	-12306
▁ellip	-12307
released	-12308
▁dup	-12309
▁ecological	-12310
atching	-12311
▁economics	-12312
▁ID	-12313
okes	-12314
▁sphere	-12315
▁inspiration	-12316
eing	-12317
ailing	-12318
▁Chan	-12319
▁artery	-12320
▁totally	-12321
▁Charlotte	-12322
Nov	-12323
▁dental	-12324
olesterol	-12325
▁affecting	-12326
▁AF	-12327
▁Ja	-12328
When	-12329
▁Studio	-12330
▁cotton	-12331
▁Actress	-12332
▁creatures	-12333
Car	-12334
▁insight	-12335
▁privile	-12336
▁splitting	-12337
One	-12338
▁Lic	-12339
writers	-12340
▁symbolic	-12341
▁progressive	-12342
▁Contemporary	-12343
▁Esc	-12344
▁inver	-12345
▁Methods	-12346
▁Approxim	-12347
▁Testament	-12348
ahl	-12349
▁verify	-12350
▁deviation	-12351
▁enforcement	-12352
▁Incre	-12353
▁Spect	-12354
▁manifest	-12355
▁sovereign	-12356
→∞	-12357
▁MIT	-12358
▁Talk	-12359
▁Observ	-12360
▁altered	-12361
▁coaching	-12362
▁Eventually	-12363
▁)−	-12364
▁xj	-12365
▁gif	-12366
agger	-12367
▁Cycl	-12368
▁Jama	-12369
▁phenomena	-12370
▁Sportspeople	-12371
ication	-12372
▁Vincent	-12373
▁Croatian	-12374
▁bind	-12375
▁mines	-12376
▁crosses	-12377
pus	-12378
▁penet	-12379
▁Serbian	-12380
▁festivals	-12381
RR	-12382
▁lip	-12383
▁boxes	-12384
▁poets	-12385
▁algebras	-12386
▁remarkable	-12387
▁combinations	-12388
chem	-12389
roat	-12390
▁gains	-12391
ivities	-12392
▁accompany	-12393
▁Statistical	-12394
▁	-12395
▁Wire	-12396
ulsion	-12397
▁delayed	-12398
▁forb	-12399
histor	-12400
▁counts	-12401
▁pushed	-12402
▁	-12403
▁eleven	-12404
cul	-12405
▁artif	-12406
▁researcher	-12407
▁contributing	-12408
airy	-12409
▁Virt	-12410
▁republic	-12411
▁achieving	-12412
asha	-12413
▁Bod	-12414
ophone	-12415
▁weigh	-12416
lington	-12417
▁pedest	-12418
▁ethical	-12419
▁Description	-12420
▁theat	-12421
▁abelian	-12422
▁accurately	-12423
perm	-12424
▁Wag	-12425
▁var	-12426
▁magic	-12427
▁banned	-12428
▁touchdown	-12429
list	-12430
▁Kun	-12431
ipper	-12432
▁reven	-12433
▁Higher	-12434
▁Function	-12435
▁Classical	-12436
pler	-12437
▁Pel	-12438
NP	-12439
▁∃	-12440
▁GM	-12441
ubble	-12442
▁Does	-12443
▁peer	-12444
▁Arena	-12445
▁atmospheric	-12446
grim	-12447
▁Rhif	-12448
▁Shar	-12449
appoint	-12450
▁travels	-12451
▁moisture	-12452
tree	-12453
▁Tou	-12454
books	-12455
winning	-12456
▁pseudo	-12457
▁beneath	-12458
▁suffices	-12459
▁soundtrack	-12460
▁mask	-12461
Co	-12462
erk	-12463
▁landed	-12464
▁deliber	-12465
▁romantic	-12466
▁literally	-12467
igue	-12468
▁Delhi	-12469
▁gross	-12470
▁imply	-12471
▁Senator	-12472
▁considerably	-12473
neum	-12474
▁Syl	-12475
otypes	-12476
▁hills	-12477
▁stake	-12478
base	-12479
▁VII	-12480
▁restore	-12481
▁Fab	-12482
▁ash	-12483
▁Total	-12484
▁explos	-12485
function	-12486
▁ensemble	-12487
▁renewable	-12488
▁Pain	-12489
▁rebuilt	-12490
SO	-12491
sor	-12492
▁Benn	-12493
▁Bert	-12494
itects	-12495
▁argues	-12496
▁Was	-12497
▁Belarus	-12498
▁suscept	-12499
▁Bav	-12500
▁cats	-12501
▁endangered	-12502
▁guarantees	-12503
oline	-12504
▁percussion	-12505
▁psychology	-12506
▁Burg	-12507
▁uncle	-12508
▁opponent	-12509
▁Block	-12510
▁Import	-12511
▁abroad	-12512
▁collecting	-12513
iko	-12514
▁consistently	-12515
▁conversation	-12516
Aug	-12517
urst	-12518
▁noting	-12519
▁speeds	-12520
▁circles	-12521
▁provider	-12522
cos	-12523
▁administered	-12524
cin	-12525
▁ol	-12526
▁Dennis	-12527
▁deemed	-12528
▁Barn	-12529
▁Assess	-12530
olutions	-12531
▁Letters	-12532
▁contents	-12533
▁Left	-12534
▁Pred	-12535
▁keys	-12536
▁dimin	-12537
▁capability	-12538
▁journalists	-12539
▁Opera	-12540
▁conductor	-12541
isson	-12542
▁Pick	-12543
▁Cuban	-12544
▁weakness	-12545
▁calculation	-12546
audi	-12547
▁tob	-12548
▁angles	-12549
▁render	-12550
▁Working	-12551
▁irregular	-12552
CP	-12553
▁IM	-12554
▁obl	-12555
▁Stre	-12556
▁Print	-12557
urations	-12558
▁counting	-12559
asis	-12560
▁sends	-12561
ultural	-12562
▁Gregory	-12563
▁enormous	-12564
▁Roth	-12565
▁Price	-12566
▁patron	-12567
▁Bald	-12568
England	-12569
▁Hilbert	-12570
▁HD	-12571
June	-12572
▁pill	-12573
▁Langu	-12574
▁dialect	-12575
▁flights	-12576
▁Nad	-12577
formerly	-12578
▁announce	-12579
▁disjoint	-12580
▁simplicity	-12581
()	-12582
Xi	-12583
ilia	-12584
▁Tas	-12585
▁Stuart	-12586
▁runner	-12587
ventions	-12588
▁relocated	-12589
▁seal	-12590
▁Sierra	-12591
▁prol	-12592
spring	-12593
▁honour	-12594
▁discret	-12595
▁enemies	-12596
▁accommodate	-12597
holm	-12598
▁Delta	-12599
▁Bosnia	-12600
esty	-12601
ffield	-12602
▁Romans	-12603
aten	-12604
olen	-12605
▁cosm	-12606
ificate	-12607
▁Period	-12608
▁estimators	-12609
▁advances	-12610
ido	-12611
▁Neil	-12612
▁Warner	-12613
▁Catholics	-12614
▁consistency	-12615
See	-12616
rill	-12617
▁Behav	-12618
▁Harrison	-12619
icting	-12620
▁Lions	-12621
▁refin	-12622
▁mirror	-12623
((	-12624
uchy	-12625
▁Alz	-12626
▁CPU	-12627
cence	-12628
▁Birds	-12629
▁reflects	-12630
▁authentic	-12631
▁commitment	-12632
▁keeps	-12633
▁ecosystems	-12634
http	-12635
role	-12636
March	-12637
▁monot	-12638
▁proving	-12639
▁commanded	-12640
TION	-12641
▁participating	-12642
caster	-12643
▁behavioral	-12644
▁Ethiop	-12645
▁pursue	-12646
▁relies	-12647
▁predictions	-12648
alam	-12649
▁strain	-12650
▁Portland	-12651
▁proportional	-12652
ylan	-12653
ymru	-12654
▁Wes	-12655
▁drought	-12656
RNA	-12657
▁Isaac	-12658
▁currency	-12659
harm	-12660
▁Mak	-12661
▁Lamb	-12662
▁inherent	-12663
▁bacterial	-12664
▁Mobile	-12665
▁planted	-12666
▁ancestors	-12667
▁electoral	-12668
hev	-12669
▁oct	-12670
otics	-12671
▁Mick	-12672
▁gear	-12673
▁realize	-12674
▁bom	-12675
kg	-12676
▁Paper	-12677
▁processor	-12678
▁requested	-12679
ritis	-12680
▁bars	-12681
▁golden	-12682
▁meteor	-12683
▁trends	-12684
▁criterion	-12685
▁Publications	-12686
▁sophistic	-12687
alin	-12688
▁asthma	-12689
▁unions	-12690
▁erosion	-12691
▁convenient	-12692
kl	-12693
ohyd	-12694
▁prelim	-12695
UK	-12696
fin	-12697
▁Fourth	-12698
▁loved	-12699
La	-12700
▁Gang	-12701
▁tenure	-12702
▁Princeton	-12703
iri	-12704
achi	-12705
▁upgrad	-12706
▁acquire	-12707
▁finance	-12708
Sm	-12709
▁Hob	-12710
ioned	-12711
itted	-12712
speed	-12713
▁crack	-12714
▁encourag	-12715
▁flooding	-12716
▁OR	-12717
▁Sox	-12718
esign	-12719
▁powered	-12720
▁rays	-12721
▁solely	-12722
▁Abbey	-12723
▁Autom	-12724
▁Arnold	-12725
isa	-12726
▁Bear	-12727
▁Chemical	-12728
▁Northwest	-12729
▁transmitter	-12730
▁AG	-12731
▁Baby	-12732
▁Cricket	-12733
▁fighter	-12734
▁generalization	-12735
etti	-12736
▁Bio	-12737
canic	-12738
doi	-12739
▁Pont	-12740
▁truck	-12741
▁Methodist	-12742
▁paragraph	-12743
olin	-12744
▁gauge	-12745
▁overt	-12746
John	-12747
▁Guinea	-12748
▁Character	-12749
▁expectations	-12750
▁Critical	-12751
▁lighting	-12752
ambers	-12753
▁calendar	-12754
▁complexes	-12755
▁incorrect	-12756
▁philosopher	-12757
mo	-12758
onda	-12759
▁Mann	-12760
▁Yorkshire	-12761
▁applicable	-12762
▁innovation	-12763
▁propagation	-12764
olith	-12765
▁Grey	-12766
▁prevented	-12767
author	-12768
▁ceased	-12769
▁Website	-12770
▁donated	-12771
▁wealthy	-12772
▁Pictures	-12773
▁utilized	-12774
▁comparable	-12775
▁protecting	-12776
▁stretch	-12777
itars	-12778
▁Fleet	-12779
ceptions	-12780
▁antibiotics	-12781
ancell	-12782
▁welfare	-12783
▁Tab	-12784
▁legacy	-12785
▁ensures	-12786
pdf	-12787
isch	-12788
▁ministers	-12789
▁ic	-12790
▁tang	-12791
arents	-12792
▁Crime	-12793
▁negotiations	-12794
▁recommendations	-12795
VA	-12796
anted	-12797
▁bees	-12798
▁sheep	-12799
▁GDP	-12800
▁Drive	-12801
▁lunar	-12802
▁quiet	-12803
▁congress	-12804
▁continent	-12805
▁prototype	-12806
▁Buch	-12807
▁radar	-12808
▁traded	-12809
▁biography	-12810
▁Ralph	-12811
▁Titan	-12812
▁sodium	-12813
▁Anglican	-12814
▁systematic	-12815
avia	-12816
▁Sig	-12817
▁viral	-12818
▁alliance	-12819
celled	-12820
▁lateral	-12821
▁listening	-12822
vae	-12823
▁bonds	-12824
▁fitted	-12825
speaking	-12826
ivic	-12827
istance	-12828
▁incorporate	-12829
valued	-12830
▁tobacco	-12831
▁shopping	-12832
DI	-12833
▁Gas	-12834
advant	-12835
▁mouse	-12836
▁Exchange	-12837
PM	-12838
▁balls	-12839
▁circuits	-12840
▁dialogue	-12841
▁terminus	-12842
▁Pul	-12843
▁sequel	-12844
▁biodiversity	-12845
▁Click	-12846
▁suddenly	-12847
▁temporarily	-12848
▁Communication	-12849
iast	-12850
▁coin	-12851
▁Tourn	-12852
ibration	-12853
▁Practice	-12854
▁anywhere	-12855
▁accomplished	-12856
Mus	-12857
▁intu	-12858
▁diocese	-12859
▁reserved	-12860
▁XX	-12861
▁Cad	-12862
potent	-12863
▁maintains	-12864
irs	-12865
▁amino	-12866
▁reads	-12867
▁secured	-12868
▁completing	-12869
iking	-12870
▁comprises	-12871
▁Diet	-12872
▁recognised	-12873
▁Judge	-12874
▁uniqu	-12875
▁guaranteed	-12876
▁@	-12877
▁Try	-12878
orted	-12879
▁beer	-12880
▁shed	-12881
inology	-12882
▁followers	-12883
▁monastery	-12884
mill	-12885
rape	-12886
▁tab	-12887
ocent	-12888
▁Jenn	-12889
▁Nobel	-12890
▁Napoleon	-12891
▁implicit	-12892
CE	-12893
▁Ach	-12894
▁radi	-12895
▁Overall	-12896
▁discipline	-12897
▁immigration	-12898
agi	-12899
sized	-12900
▁Walt	-12901
▁proves	-12902
▁unlikely	-12903
▁consciousness	-12904
▁finals	-12905
▁Herbert	-12906
▁debuted	-12907
held	-12908
▁cit	-12909
▁anger	-12910
▁steep	-12911
▁seriously	-12912
Euro	-12913
▁Obl	-12914
uez	-12915
▁Hein	-12916
arians	-12917
▁Often	-12918
▁murdered	-12919
▁campaigns	-12920
▁poorly	-12921
▁Delaware	-12922
▁Interest	-12923
gom	-12924
iti	-12925
▁Mik	-12926
▁buses	-12927
▁tumor	-12928
▁fibers	-12929
▁Sheffield	-12930
▁provisions	-12931
TH	-12932
▁Ki	-12933
▁Ton	-12934
▁sacred	-12935
▁shifted	-12936
▁humanity	-12937
▁structured	-12938
psy	-12939
▁habits	-12940
▁Economics	-12941
▁Brooks	-12942
▁civilian	-12943
▁Apost	-12944
▁freely	-12945
▁layout	-12946
▁Pand	-12947
▁Desert	-12948
▁traits	-12949
▁checking	-12950
▁consumed	-12951
▁switched	-12952
▁substitute	-12953
▁EL	-12954
outheastern	-12955
▁ei	-12956
▁infect	-12957
▁Buddhism	-12958
▁consolid	-12959
▁treating	-12960
ennium	-12961
▁navigation	-12962
▁calculations	-12963
Ju	-12964
▁Cay	-12965
inent	-12966
minute	-12967
▁abundant	-12968
▁customer	-12969
▁contracts	-12970
▁abst	-12971
▁webs	-12972
▁voters	-12973
▁Nigeria	-12974
▁recursive	-12975
▁Basic	-12976
▁Account	-12977
▁ster	-12978
▁condem	-12979
▁differently	-12980
▁twin	-12981
▁mosqu	-12982
▁centered	-12983
▁severely	-12984
was	-12985
▁coins	-12986
▁Languages	-12987
▁thir	-12988
▁Ghost	-12989
▁Chairman	-12990
▁Magic	-12991
▁Prison	-12992
▁Thunder	-12993
▁complement	-12994
▁museums	-12995
yt	-12996
▁PR	-12997
icious	-12998
▁Berg	-12999
▁ports	-13000
▁fantasy	-13001
▁feather	-13002
▁Alzheimer	-13003
▁Eld	-13004
▁rum	-13005
▁oscill	-13006
▁Sources	-13007
▁Got	-13008
▁Recip	-13009
▁decides	-13010
▁Original	-13011
▁specimen	-13012
▁assignments	-13013
%),	-13014
▁Fou	-13015
▁Flore	-13016
▁modes	-13017
▁Phillips	-13018
▁installation	-13019
irk	-13020
▁breed	-13021
▁possibilities	-13022
umped	-13023
▁bulk	-13024
restrial	-13025
▁keyboard	-13026
▁keyboards	-13027
▁Pn	-13028
▁barrier	-13029
ovo	-13030
▁basin	-13031
enza	-13032
▁wrap	-13033
▁Rosen	-13034
ansk	-13035
unes	-13036
celand	-13037
▁attending	-13038
▁DS	-13039
▁FIFA	-13040
▁promise	-13041
▁incidents	-13042
▁punishment	-13043
entieth	-13044
▁Finance	-13045
▁obesity	-13046
▁baseline	-13047
▁Gonz	-13048
▁wavel	-13049
▁Rogers	-13050
▁payment	-13051
▁searching	-13052
▁arrangements	-13053
orp	-13054
arms	-13055
▁Tru	-13056
▁Species	-13057
▁realistic	-13058
▁engagement	-13059
izable	-13060
plate	-13061
▁outstanding	-13062
ović	-13063
▁goddess	-13064
̂n	-13065
ichi	-13066
▁ber	-13067
▁Lakes	-13068
▁Marvel	-13069
▁deeply	-13070
▁molecule	-13071
oque	-13072
▁Curt	-13073
▁Hann	-13074
▁extracted	-13075
castle	-13076
▁Watch	-13077
▁extraction	-13078
fig	-13079
▁admits	-13080
▁affiliated	-13081
▁forget	-13082
▁dt	-13083
iffs	-13084
▁Lands	-13085
▁Travel	-13086
▁pulled	-13087
▁tourist	-13088
▁promising	-13089
kee	-13090
whe	-13091
▁Bowie	-13092
▁Exerc	-13093
▁Punjab	-13094
▁LS	-13095
isode	-13096
▁gift	-13097
▁sevent	-13098
▁cooking	-13099
▁Vlad	-13100
Donald	-13101
▁Fellow	-13102
▁copyright	-13103
▁segmentation	-13104
▁Rou	-13105
stown	-13106
▁affiliate	-13107
▁Grace	-13108
▁functioning	-13109
▁Lion	-13110
▁pine	-13111
▁Clarke	-13112
▁learns	-13113
▁Property	-13114
▁organised	-13115
▁specialist	-13116
eps	-13117
▁Marx	-13118
ustain	-13119
▁Scout	-13120
▁Friedrich	-13121
itus	-13122
lett	-13123
▁anth	-13124
▁grey	-13125
▁striking	-13126
▁corruption	-13127
rians	-13128
▁True	-13129
English	-13130
inatorial	-13131
▁Available	-13132
▁)]	-13133
▁gi	-13134
▁pH	-13135
▁batteries	-13136
▁predators	-13137
▁Bog	-13138
▁irr	-13139
▁ritual	-13140
▁Gilbert	-13141
▁EC	-13142
▁Helen	-13143
▁posts	-13144
▁Butler	-13145
▁proposition	-13146
▁ﬁ	-13147
▁Bun	-13148
ATION	-13149
▁undergo	-13150
▁productions	-13151
▁Optim	-13152
rien	-13153
▁crust	-13154
▁altitude	-13155
IG	-13156
dx	-13157
aba	-13158
▁Select	-13159
ographers	-13160
▁respiratory	-13161
▁ease	-13162
▁Babyl	-13163
▁bankrupt	-13164
▁Deb	-13165
▁learners	-13166
▁disestablished	-13167
date	-13168
▁Cars	-13169
▁legislative	-13170
atis	-13171
▁Tool	-13172
rative	-13173
than	-13174
urse	-13175
▁Kath	-13176
▁Movie	-13177
▁Defunct	-13178
▁reforms	-13179
▁sampled	-13180
▁reviewed	-13181
▁celebrate	-13182
▁accounting	-13183
▁enact	-13184
▁¯	-13185
quis	-13186
▁Enc	-13187
▁Bobby	-13188
idency	-13189
▁Below	-13190
ulative	-13191
▁intens	-13192
▁noticed	-13193
scar	-13194
▁graphic	-13195
iao	-13196
oves	-13197
▁Fast	-13198
▁congreg	-13199
▁overseas	-13200
▁Fictional	-13201
▁Socialist	-13202
▁reportedly	-13203
sur	-13204
▁prosper	-13205
direct	-13206
▁thank	-13207
▁Catherine	-13208
lli	-13209
▁Fix	-13210
▁Rus	-13211
▁pace	-13212
untary	-13213
▁Range	-13214
▁siege	-13215
▁cavalry	-13216
Im	-13217
▁Qur	-13218
▁Bath	-13219
▁Thanks	-13220
anti	-13221
▁Kon	-13222
▁gray	-13223
▁embra	-13224
▁cholesterol	-13225
▁Dylan	-13226
▁consent	-13227
▁Algorithms	-13228
▁Loc	-13229
▁Draft	-13230
bird	-13231
▁Sask	-13232
▁dispos	-13233
▁steady	-13234
▁Conserv	-13235
▁Equation	-13236
▁Facebook	-13237
▁attitude	-13238
▁Eis	-13239
▁incred	-13240
doms	-13241
game	-13242
▁PDF	-13243
▁Bach	-13244
▁Finnish	-13245
▁	-13246
▁pars	-13247
imedia	-13248
▁eleph	-13249
▁Measure	-13250
▁colored	-13251
▁youngest	-13252
dan	-13253
pert	-13254
▁Link	-13255
▁departments	-13256
.’	-13257
osure	-13258
tingham	-13259
dec	-13260
▁Maz	-13261
▁Lanka	-13262
▁Circle	-13263
cap	-13264
▁soils	-13265
▁livestock	-13266
▁Pent	-13267
▁blow	-13268
▁Shortly	-13269
▁Stevens	-13270
▁obtaining	-13271
▁Hus	-13272
▁bapt	-13273
▁Aaron	-13274
▁deals	-13275
▁Random	-13276
▁autonomous	-13277
Go	-13278
▁Bronze	-13279
▁enhanced	-13280
▁ON	-13281
quer	-13282
▁Dest	-13283
▁Estim	-13284
atories	-13285
▁centres	-13286
▁spanning	-13287
▁disabilities	-13288
bot	-13289
▁rod	-13290
utely	-13291
▁Beyond	-13292
▁protective	-13293
ère	-13294
▁sponsored	-13295
▁occurrence	-13296
▁Commissioner	-13297
dig	-13298
assic	-13299
▁Bloom	-13300
▁mechanics	-13301
acht	-13302
▁gates	-13303
▁Double	-13304
atra	-13305
▁Wald	-13306
▁memories	-13307
▁Personnel	-13308
▁->	-13309
▁Brain	-13310
▁fallen	-13311
▁Quarter	-13312
▁sensing	-13313
idad	-13314
▁cam	-13315
▁belt	-13316
▁genera	-13317
▁refugees	-13318
▁Munich	-13319
▁patent	-13320
▁Springs	-13321
▁Prix	-13322
▁armies	-13323
▁syntax	-13324
▁leagues	-13325
ophers	-13326
▁infin	-13327
▁Campaign	-13328
▁doctrine	-13329
▁lungs	-13330
▁symmetry	-13331
ocols	-13332
▁aggressive	-13333
▁Todd	-13334
▁emotion	-13335
offic	-13336
▁Tow	-13337
▁Kash	-13338
asures	-13339
▁housed	-13340
▁ingredients	-13341
▁ultra	-13342
▁relatives	-13343
▁Bour	-13344
▁till	-13345
▁Manufact	-13346
▁benchmark	-13347
▁sustained	-13348
▁cabinet	-13349
stal	-13350
▁puzz	-13351
connected	-13352
▁scheduling	-13353
▁CN	-13354
...,	-13355
▁Yan	-13356
▁fee	-13357
▁Bund	-13358
ternoon	-13359
▁clouds	-13360
Mac	-13361
bin	-13362
ogl	-13363
▁Peng	-13364
makers	-13365
▁Issue	-13366
ijing	-13367
▁gast	-13368
▁Arsen	-13369
▁Azerbaijan	-13370
▁Meg	-13371
▁Mis	-13372
veill	-13373
▁patch	-13374
ufficient	-13375
igs	-13376
mun	-13377
▁dose	-13378
▁forcing	-13379
▁Aviation	-13380
anim	-13381
▁analyses	-13382
▁motivation	-13383
helm	-13384
leys	-13385
ril	-13386
ptic	-13387
▁Esp	-13388
▁slope	-13389
▁Iceland	-13390
▁mainland	-13391
▁Medalists	-13392
▁surrender	-13393
aco	-13394
dez	-13395
nas	-13396
sing	-13397
▁pian	-13398
▁Saudi	-13399
▁Reform	-13400
▁arithmetic	-13401
▁descriptions	-13402
▁parliamentary	-13403
fol	-13404
este	-13405
▁Hav	-13406
▁harder	-13407
▁perpet	-13408
▁fing	-13409
▁Athen	-13410
▁Watson	-13411
▁topological	-13412
▁(“	-13413
since	-13414
▁knee	-13415
▁perturb	-13416
▁Prevention	-13417
▁unexpected	-13418
▁Municipality	-13419
▁preservation	-13420
▁Pow	-13421
entry	-13422
▁Cret	-13423
songwriter	-13424
rez	-13425
▁Kay	-13426
▁tension	-13427
▁protests	-13428
Ap	-13429
▁ft	-13430
shore	-13431
▁infant	-13432
▁Knowledge	-13433
▁innovative	-13434
▁Computational	-13435
umi	-13436
▁TO	-13437
▁Ve	-13438
heng	-13439
▁aspir	-13440
iological	-13441
▁restaurants	-13442
exts	-13443
▁Madrid	-13444
▁stationary	-13445
▁gut	-13446
▁activists	-13447
▁hospitals	-13448
▁approached	-13449
arts	-13450
▁Sci	-13451
▁pel	-13452
empor	-13453
▁babies	-13454
▁overhead	-13455
▁practition	-13456
▁Pin	-13457
▁deputy	-13458
▁geodes	-13459
▁insulin	-13460
▁editions	-13461
▁isolation	-13462
▁satisfact	-13463
arity	-13464
▁Fine	-13465
▁bearing	-13466
▁RAF	-13467
▁thy	-13468
encer	-13469
▁deck	-13470
▁coron	-13471
▁contrary	-13472
▁designing	-13473
▁arter	-13474
▁Planet	-13475
▁causal	-13476
▁watching	-13477
▁CL	-13478
▁AFL	-13479
▁bil	-13480
▁opens	-13481
estinal	-13482
▁Carbon	-13483
▁absent	-13484
▁tribute	-13485
▁preliminary	-13486
oyage	-13487
▁reef	-13488
▁Lloyd	-13489
▁Rather	-13490
▁merger	-13491
▁safely	-13492
▁clients	-13493
▁Otherwise	-13494
▁fragments	-13495
oshi	-13496
▁por	-13497
thlete	-13498
▁fossils	-13499
▁confident	-13500
▁Archbishop	-13501
▁RS	-13502
cially	-13503
▁Artists	-13504
web	-13505
▁Lik	-13506
▁dil	-13507
▁Copy	-13508
United	-13509
▁Legal	-13510
▁axi	-13511
▁deer	-13512
▁indices	-13513
▁astronaut	-13514
̃(	-13515
irts	-13516
▁NHL	-13517
▁Alger	-13518
▁eligible	-13519
▁Assistant	-13520
▁Ens	-13521
▁Fat	-13522
veillance	-13523
▁container	-13524
▁sequential	-13525
fan	-13526
▁Chi	-13527
▁Kid	-13528
▁mes	-13529
atche	-13530
▁Foot	-13531
▁equals	-13532
▁|=	-13533
anium	-13534
▁subdiv	-13535
▁Starting	-13536
iov	-13537
arked	-13538
▁pestic	-13539
Sch	-13540
▁nil	-13541
▁syll	-13542
▁reson	-13543
▁Fra	-13544
▁verse	-13545
▁shelter	-13546
▁democratic	-13547
▁Et	-13548
onso	-13549
▁Adrian	-13550
▁Cardinals	-13551
bat	-13552
ellar	-13553
▁Coal	-13554
▁Cust	-13555
ulators	-13556
▁gly	-13557
▁fifteen	-13558
▁microscop	-13559
gomery	-13560
imeter	-13561
▁Leeds	-13562
▁drives	-13563
▁firing	-13564
▁prayer	-13565
▁tongue	-13566
cott	-13567
▁Prag	-13568
▁hist	-13569
▁improves	-13570
▁Electronic	-13571
▁Hispan	-13572
▁cinema	-13573
▁coupled	-13574
▁Workshop	-13575
▁sacrifice	-13576
▁Aur	-13577
▁Patt	-13578
▁abundance	-13579
olean	-13580
▁Month	-13581
▁scaling	-13582
▁contexts	-13583
swick	-13584
▁ninth	-13585
▁deterior	-13586
▁acceptable	-13587
eu	-13588
days	-13589
▁Citiz	-13590
▁Andrews	-13591
▁passion	-13592
▁ensuring	-13593
▁celebration	-13594
hea	-13595
uka	-13596
▁wi	-13597
▁studios	-13598
▁governing	-13599
▁conjecture	-13600
▁formations	-13601
▁	-13602
▁Leo	-13603
antle	-13604
▁Very	-13605
▁Ridge	-13606
▁relate	-13607
▁cameras	-13608
DD	-13609
▁RA	-13610
oided	-13611
▁magnet	-13612
▁Vermont	-13613
▁lengths	-13614
▁judgment	-13615
▁permanently	-13616
ogan	-13617
▁Cao	-13618
inced	-13619
▁Luke	-13620
▁irrit	-13621
▁Bayesian	-13622
Ab	-13623
▁	-13624
▁RC	-13625
▁Rule	-13626
umbers	-13627
▁Which	-13628
▁Norfolk	-13629
▁birthday	-13630
▁suspected	-13631
▁IL	-13632
▁Schol	-13633
▁rocket	-13634
▁Ny	-13635
ensing	-13636
▁Diamond	-13637
▁unclear	-13638
▁dramatically	-13639
kar	-13640
iere	-13641
▁germ	-13642
▁slot	-13643
uclide	-13644
▁weekend	-13645
▁Benedict	-13646
▁similarities	-13647
▁cha	-13648
▁Heat	-13649
▁toll	-13650
▁queen	-13651
▁Edwards	-13652
dependent	-13653
▁hierarchy	-13654
▁Suz	-13655
quest	-13656
▁Soph	-13657
▁Tibet	-13658
▁prescribed	-13659
reck	-13660
▁Jar	-13661
integ	-13662
▁yard	-13663
▁Neuro	-13664
▁talks	-13665
modules	-13666
▁conspir	-13667
gary	-13668
lane	-13669
▁Jin	-13670
▁urg	-13671
▁Slav	-13672
etheless	-13673
▁avoided	-13674
▁bishops	-13675
▁mutations	-13676
▁©	-13677
mans	-13678
▁Municipal	-13679
rust	-13680
▁Ches	-13681
▁Hughes	-13682
▁Wednes	-13683
▁aboard	-13684
valuation	-13685
▁attractions	-13686
four	-13687
wind	-13688
▁prince	-13689
▁limiting	-13690
▁commentary	-13691
▁concurrent	-13692
▁impressive	-13693
oi	-13694
odic	-13695
anche	-13696
flies	-13697
▁Fram	-13698
habilit	-13699
▁sketch	-13700
ordinary	-13701
▁seasonal	-13702
▁technological	-13703
▁enumer	-13704
▁Armenia	-13705
▁Manager	-13706
▁qualify	-13707
▁Beginning	-13708
é	-13709
Figure	-13710
icking	-13711
▁absorption	-13712
▁developers	-13713
▁Nathan	-13714
▁Argentine	-13715
▁observing	-13716
▁casualties	-13717
▁succession	-13718
both	-13719
▁Geoff	-13720
▁Ernest	-13721
▁enzyme	-13722
▁anat	-13723
▁Perhaps	-13724
▁resolve	-13725
▁apartment	-13726
▁attraction	-13727
▁bell	-13728
▁trem	-13729
▁abbre	-13730
▁admit	-13731
▁digit	-13732
▁Arabia	-13733
▁monthly	-13734
▁Ng	-13735
▁Eddie	-13736
▁squares	-13737
▁surname	-13738
▁journals	-13739
▁organism	-13740
▁unsuccessful	-13741
▁sophisticated	-13742
urbs	-13743
imony	-13744
▁drafted	-13745
▁Body	-13746
▁Economy	-13747
▁nonzero	-13748
▁motivated	-13749
▁projected	-13750
uba	-13751
▁DA	-13752
▁pap	-13753
avian	-13754
▁Crus	-13755
▁Nurs	-13756
▁pipe	-13757
▁tomb	-13758
▁à	-13759
▁hopes	-13760
▁sib	-13761
herical	-13762
▁fastest	-13763
▁Democrats	-13764
▁Populated	-13765
▁injection	-13766
▁Balk	-13767
▁biom	-13768
ublished	-13769
▁warfare	-13770
DT	-13771
umm	-13772
▁lap	-13773
ilian	-13774
▁Gill	-13775
▁aest	-13776
mother	-13777
▁Cover	-13778
▁shipping	-13779
▁Montgomery	-13780
lesh	-13781
ducer	-13782
▁Related	-13783
▁concerts	-13784
▁je	-13785
▁Toy	-13786
▁Rams	-13787
kinson	-13788
unning	-13789
▁blank	-13790
▁remind	-13791
▁accordance	-13792
▁attractive	-13793
▁lying	-13794
▁powder	-13795
FO	-13796
ovina	-13797
▁Luis	-13798
▁morphism	-13799
▁conducting	-13800
▁kidn	-13801
▁activated	-13802
▁explosion	-13803
dep	-13804
▁Sz	-13805
▁orn	-13806
▁Must	-13807
▁Madison	-13808
▁handled	-13809
anni	-13810
rapeut	-13811
▁Apply	-13812
jection	-13813
▁drummer	-13814
▁rebellion	-13815
▁interviews	-13816
▁heur	-13817
acular	-13818
▁Partners	-13819
▁assisted	-13820
iche	-13821
▁Ful	-13822
human	-13823
▁Barcel	-13824
▁ethics	-13825
▁Fi	-13826
election	-13827
▁beating	-13828
▁floating	-13829
▁exploring	-13830
itol	-13831
▁Making	-13832
▁escaped	-13833
▁Brussels	-13834
▁Abu	-13835
▁Cec	-13836
▁sax	-13837
▁suspension	-13838
▁conclusions	-13839
▁Sent	-13840
▁Parad	-13841
▁bipart	-13842
bast	-13843
aukee	-13844
▁clothes	-13845
▁talent	-13846
▁Teachers	-13847
▁athletic	-13848
▁Antarctic	-13849
▁distribut	-13850
▁nomination	-13851
▁Understanding	-13852
irie	-13853
namese	-13854
▁Bailey	-13855
▁Recognition	-13856
▁Agricultural	-13857
lar	-13858
Cymru	-13859
▁beta	-13860
Europe	-13861
▁frust	-13862
▁rever	-13863
▁Workers	-13864
▁Brunswick	-13865
EX	-13866
bial	-13867
iden	-13868
oxic	-13869
cover	-13870
▁Integ	-13871
Station	-13872
encement	-13873
▁consume	-13874
▁gaining	-13875
▁arriving	-13876
▁¨	-13877
▁ul	-13878
▁Pom	-13879
▁Hunt	-13880
▁Spart	-13881
▁spell	-13882
▁sword	-13883
▁wound	-13884
▁nutrient	-13885
▁recurrent	-13886
usc	-13887
▁forty	-13888
July	-13889
epending	-13890
▁coalition	-13891
▁introduces	-13892
▁registration	-13893
affe	-13894
▁Ord	-13895
▁Pink	-13896
▁accomplish	-13897
▁vig	-13898
▁mentions	-13899
VI	-13900
▁Carn	-13901
▁Actor	-13902
product	-13903
▁Caesar	-13904
shot	-13905
▁barrel	-13906
▁shadow	-13907
▁phylogen	-13908
etra	-13909
onial	-13910
▁Eagles	-13911
▁programmes	-13912
▁coordination	-13913
▁ticket	-13914
▁simpler	-13915
▁volcano	-13916
▁convinced	-13917
▁neighbourhood	-13918
eros	-13919
▁Belf	-13920
▁achieves	-13921
imir	-13922
itance	-13923
▁fifty	-13924
▁valve	-13925
▁workshe	-13926
sover	-13927
▁Kild	-13928
▁comics	-13929
▁execut	-13930
warf	-13931
levard	-13932
▁conce	-13933
nings	-13934
ativity	-13935
▁compress	-13936
▁meaningful	-13937
isy	-13938
August	-13939
▁Wells	-13940
isphere	-13941
▁Illust	-13942
▁Chester	-13943
▁guitars	-13944
▁Archives	-13945
▁momentum	-13946
▁ui	-13947
ampa	-13948
minster	-13949
▁Tasman	-13950
▁Americas	-13951
▁IBM	-13952
▁puts	-13953
igious	-13954
▁alarm	-13955
▁Taking	-13956
▁Raymond	-13957
▁jointly	-13958
▁challenged	-13959
▁Va	-13960
▁Chad	-13961
▁Female	-13962
▁Legacy	-13963
▁autism	-13964
▁temples	-13965
stock	-13966
wart	-13967
▁appl	-13968
▁Struct	-13969
▁transported	-13970
▁Sons	-13971
ysical	-13972
▁Beijing	-13973
▁preceding	-13974
SN	-13975
week	-13976
▁Cypr	-13977
▁outper	-13978
▁Attorney	-13979
▁commented	-13980
▁hypotheses	-13981
haw	-13982
osex	-13983
▁Montana	-13984
▁thereafter	-13985
▁Nine	-13986
waukee	-13987
▁demanded	-13988
ulo	-13989
oric	-13990
▁Pearl	-13991
▁tribut	-13992
▁phrases	-13993
▁compressed	-13994
▁RT	-13995
rawn	-13996
anyon	-13997
▁bicy	-13998
▁Krist	-13999
▁preparing	-14000
▁Lux	-14001
▁arena	-14002
month	-14003
▁mystery	-14004
fa	-14005
arial	-14006
▁pist	-14007
comput	-14008
▁feels	-14009
▁Clearly	-14010
uh	-14011
▁prest	-14012
otherapy	-14013
▁ourselves	-14014
▁constituency	-14015
ctuary	-14016
▁annex	-14017
▁Religious	-14018
▁Agre	-14019
▁Mari	-14020
▁Mull	-14021
▁dying	-14022
▁wheat	-14023
▁subsidiary	-14024
▁predominantly	-14025
▁Room	-14026
▁Moroc	-14027
▁Oakland	-14028
▁Wikipedia	-14029
▁tolerance	-14030
▁Kor	-14031
▁jet	-14032
▁Chal	-14033
▁beans	-14034
▁cargo	-14035
▁substantially	-14036
▁hook	-14037
▁wedding	-14038
▁chapters	-14039
▁decorated	-14040
▁opponents	-14041
▁IRA	-14042
▁Own	-14043
addle	-14044
insic	-14045
▁venture	-14046
▁SD	-14047
▁ci	-14048
▁Perry	-14049
▁overlook	-14050
▁certified	-14051
▁revolutionary	-14052
uler	-14053
atz	-14054
▁OP	-14055
▁viewers	-14056
▁successive	-14057
▁mud	-14058
▁hash	-14059
iscopal	-14060
rav	-14061
▁cataly	-14062
▁Remember	-14063
▁saving	-14064
▁diplomatic	-14065
ön	-14066
▁Lex	-14067
▁Hess	-14068
arrison	-14069
incorporated	-14070
NG	-14071
▁µ(	-14072
▁lex	-14073
▁ESPN	-14074
▁oceans	-14075
▁recalled	-14076
▁placement	-14077
clip	-14078
finals	-14079
▁stuff	-14080
▁ministry	-14081
▁computations	-14082
aram	-14083
went	-14084
igroup	-14085
▁Venice	-14086
▁Mercury	-14087
▁Teaching	-14088
▁disadvant	-14089
building	-14090
eneration	-14091
▁flexibility	-14092
.(	-14093
▁Aw	-14094
▁NA	-14095
color	-14096
roleum	-14097
▁Reich	-14098
▁algae	-14099
▁colours	-14100
▁shoulder	-14101
▁Tournament	-14102
ovich	-14103
▁Saturn	-14104
▁purely	-14105
legraph	-14106
▁Soccer	-14107
▁allies	-14108
▁grains	-14109
▁residual	-14110
▁KL	-14111
bage	-14112
▁Greeks	-14113
▁Ronald	-14114
▁Rut	-14115
▁Malt	-14116
closed	-14117
▁transit	-14118
▁Artificial	-14119
▁deficiency	-14120
▁localization	-14121
ikes	-14122
▁bund	-14123
▁logo	-14124
▁unem	-14125
▁Faith	-14126
▁Plate	-14127
itational	-14128
▁volcanic	-14129
▁dinosaurs	-14130
▁scholarship	-14131
▁SH	-14132
▁YouT	-14133
▁bore	-14134
upiter	-14135
▁Cyprus	-14136
missible	-14137
▁adventure	-14138
▁manufacture	-14139
▁fate	-14140
▁plug	-14141
▁ultimate	-14142
▁Oz	-14143
adau	-14144
▁Forum	-14145
▁Kenya	-14146
October	-14147
▁Scotia	-14148
▁Religion	-14149
▁converges	-14150
▁comprising	-14151
ourt	-14152
▁illum	-14153
▁boards	-14154
▁terrain	-14155
▁disappeared	-14156
▁predecessor	-14157
rs	-14158
▁ď	-14159
hal	-14160
▁′′	-14161
▁Priv	-14162
▁Rabbi	-14163
▁rated	-14164
▁galaxy	-14165
▁lesser	-14166
▁gathering	-14167
▁Constantin	-14168
▁Á	-14169
ahan	-14170
size	-14171
▁Eagle	-14172
▁aside	-14173
▁prefix	-14174
▁happening	-14175
▁methodology	-14176
▁demonstrates	-14177
▁implementing	-14178
vor	-14179
▁McM	-14180
▁buffer	-14181
▁attendance	-14182
▁automorphism	-14183
iens	-14184
isan	-14185
ruit	-14186
▁Mol	-14187
▁Aberd	-14188
▁patri	-14189
▁enroll	-14190
▁Guardian	-14191
▁	-14192
inance	-14193
▁Krish	-14194
▁anchor	-14195
▁autumn	-14196
▁proxim	-14197
▁slower	-14198
▁abolished	-14199
▁resistant	-14200
▁Continental	-14201
▁Indianapolis	-14202
▁rigid	-14203
▁Murphy	-14204
▁patrol	-14205
▁premiered	-14206
▁AA	-14207
itary	-14208
section	-14209
▁antenna	-14210
▁enabling	-14211
▁petition	-14212
▁offspring	-14213
dal	-14214
ovsky	-14215
▁parking	-14216
▁Nottingham	-14217
▁modifications	-14218
▁Advis	-14219
▁unity	-14220
▁earning	-14221
▁Cornwall	-14222
rior	-14223
govern	-14224
▁Intel	-14225
agonist	-14226
▁bypass	-14227
▁Leonard	-14228
▁Yugoslavia	-14229
five	-14230
▁rises	-14231
▁rulers	-14232
▁timing	-14233
▁sculpture	-14234
April	-14235
▁Jung	-14236
▁loud	-14237
▁meal	-14238
December	-14239
▁differs	-14240
▁auxiliary	-14241
Aust	-14242
▁mold	-14243
forming	-14244
▁healing	-14245
▁generality	-14246
▁philosophical	-14247
elin	-14248
adows	-14249
driven	-14250
ircraft	-14251
▁modification	-14252
▁Revolutionary	-14253
▁Eb	-14254
▁Assy	-14255
▁Veter	-14256
▁Things	-14257
▁sensory	-14258
▁MB	-14259
▁Basin	-14260
romagnetic	-14261
▁switching	-14262
▁metropolitan	-14263
▁reporter	-14264
▁	-14265
▁cran	-14266
▁Smart	-14267
positions	-14268
▁pronounced	-14269
▁ghost	-14270
▁setup	-14271
due	-14272
ortic	-14273
▁Cert	-14274
▁gest	-14275
▁Pedro	-14276
▁neuron	-14277
▁MO	-14278
▁Soci	-14279
▁Question	-14280
▁spelling	-14281
▁dismissed	-14282
▁invention	-14283
▁coup	-14284
▁burial	-14285
▁wheels	-14286
PD	-14287
▁jury	-14288
▁Tommy	-14289
▁guess	-14290
▁trunc	-14291
riction	-14292
▁clergy	-14293
esium	-14294
garten	-14295
▁ι	-14296
▁masc	-14297
▁fuels	-14298
▁Barcelona	-14299
▁Discovery	-14300
▁normalized	-14301
▁withdrawal	-14302
plus	-14303
▁bleeding	-14304
▁recipient	-14305
Elect	-14306
▁Suff	-14307
▁absorb	-14308
▁suburb	-14309
▁missile	-14310
▁protocols	-14311
▁configurations	-14312
▁∞.	-14313
pret	-14314
ogens	-14315
▁loose	-14316
▁urine	-14317
▁paying	-14318
regation	-14319
▁engaging	-14320
▁cancelled	-14321
▁foundations	-14322
lived	-14323
mount	-14324
▁shops	-14325
▁tendency	-14326
uncredited	-14327
▁qualities	-14328
iya	-14329
jud	-14330
▁Xn	-14331
stage	-14332
▁Manuel	-14333
vet	-14334
▁CI	-14335
▁ti	-14336
▁epit	-14337
▁Parish	-14338
▁gallery	-14339
▁discharge	-14340
▁extinction	-14341
▁citizenship	-14342
▁	-14343
▁	-14344
duce	-14345
▁Abs	-14346
▁jew	-14347
▁Write	-14348
▁Vitamin	-14349
▁scattered	-14350
▁experiencing	-14351
▁Beth	-14352
▁flew	-14353
▁Picture	-14354
▁broader	-14355
▁ignored	-14356
▁Vietnamese	-14357
▁fraud	-14358
uclidean	-14359
▁Leaders	-14360
▁locomotives	-14361
▁ˇ	-14362
player	-14363
▁charity	-14364
atar	-14365
oping	-14366
▁button	-14367
▁persec	-14368
▁MI	-14369
▁grave	-14370
▁Palestine	-14371
▁populated	-14372
▁inequalities	-14373
▁verification	-14374
ART	-14375
rys	-14376
ardi	-14377
bol	-14378
▁Pete	-14379
▁Marines	-14380
▁legislature	-14381
▁Mead	-14382
▁harsh	-14383
▁merchant	-14384
▁Newcastle	-14385
▁SW	-14386
▁Fan	-14387
rington	-14388
▁Harvey	-14389
▁larvae	-14390
▁plasma	-14391
▁Masters	-14392
▁Highland	-14393
▁wrestling	-14394
▁RF	-14395
▁las	-14396
▁Lisa	-14397
▁Iraqi	-14398
▁orchest	-14399
▁spreading	-14400
yi	-14401
▁sad	-14402
rament	-14403
▁Armed	-14404
▁cache	-14405
▁affine	-14406
▁subspace	-14407
▁Wellington	-14408
hm	-14409
▁surg	-14410
▁pilots	-14411
▁specify	-14412
▁designation	-14413
sted	-14414
▁Rank	-14415
▁Swan	-14416
▁Claud	-14417
▁Kill	-14418
▁Thor	-14419
▁oste	-14420
posing	-14421
▁artifacts	-14422
▁inhabited	-14423
rt	-14424
▁Sean	-14425
▁guests	-14426
▁funeral	-14427
▁pathway	-14428
September	-14429
▁constitute	-14430
▁productivity	-14431
▁Heaven	-14432
▁Leader	-14433
▁guided	-14434
ancellor	-14435
▁opinions	-14436
▁cooperative	-14437
Res	-14438
ims	-14439
▁Franz	-14440
▁Voice	-14441
▁Python	-14442
▁Solomon	-14443
Scot	-14444
anthrop	-14445
▁Valent	-14446
▁charter	-14447
▁inflation	-14448
▁Hamb	-14449
▁stems	-14450
ocolate	-14451
trivial	-14452
ullivan	-14453
▁	-14454
phis	-14455
▁Fly	-14456
rically	-14457
▁Nashville	-14458
▁grandfather	-14459
▁	-14460
▁Indo	-14461
▁gymn	-14462
▁Apart	-14463
▁Whether	-14464
▁lasting	-14465
▁Symptoms	-14466
▁formulas	-14467
▁continental	-14468
bey	-14469
▁dot	-14470
dings	-14471
▁Birth	-14472
▁Lebanon	-14473
▁strange	-14474
▁Gö	-14475
▁hull	-14476
▁Logic	-14477
▁arrives	-14478
sens	-14479
luence	-14480
▁Editor	-14481
▁internationally	-14482
thesis	-14483
▁dietary	-14484
▁modeled	-14485
criptions	-14486
oqu	-14487
oslov	-14488
▁hormone	-14489
represent	-14490
▁intelligent	-14491
rish	-14492
▁Vern	-14493
alling	-14494
▁Chemistry	-14495
▁Raw	-14496
▁Pale	-14497
▁dece	-14498
German	-14499
enhagen	-14500
▁debris	-14501
▁Wednesday	-14502
GN	-14503
▁Og	-14504
ctica	-14505
▁Gand	-14506
▁dans	-14507
▁mall	-14508
▁corps	-14509
olecular	-14510
▁disability	-14511
▁territorial	-14512
amo	-14513
ucc	-14514
agar	-14515
enos	-14516
heres	-14517
inters	-14518
▁Depression	-14519
arding	-14520
▁Stories	-14521
▁drainage	-14522
▁diffusion	-14523
▁lieutenant	-14524
▁geographical	-14525
▁Dame	-14526
▁Shop	-14527
▁Sleep	-14528
▁Liberty	-14529
▁surveys	-14530
▁Reception	-14531
▁cheap	-14532
▁Fiction	-14533
▁Complete	-14534
▁analogous	-14535
Te	-14536
▁TB	-14537
▁São	-14538
▁Flying	-14539
▁transactions	-14540
MD	-14541
aho	-14542
▁boss	-14543
vation	-14544
▁Myster	-14545
▁geographic	-14546
empty	-14547
▁Money	-14548
▁Advances	-14549
▁bandwidth	-14550
▁travelled	-14551
▁voices	-14552
▁avoiding	-14553
hop	-14554
lia	-14555
▁(#	-14556
▁NT	-14557
▁flav	-14558
▁Mills	-14559
▁divine	-14560
▁prevents	-14561
▁remembered	-14562
▁playoffs	-14563
▁Dominican	-14564
ferred	-14565
▁elite	-14566
▁norms	-14567
ructive	-14568
▁planes	-14569
▁Pradesh	-14570
▁electronics	-14571
')	-14572
▁Pav	-14573
▁Thai	-14574
▁reorgan	-14575
▁Criminal	-14576
▁inducted	-14577
▁PH	-14578
▁Exped	-14579
▁checks	-14580
ottom	-14581
▁pneum	-14582
▁Mn	-14583
▁Hat	-14584
▁Kol	-14585
izard	-14586
ropic	-14587
▁Otto	-14588
▁silent	-14589
▁Milwaukee	-14590
▁	-14591
Ver	-14592
▁Huang	-14593
▁quart	-14594
▁grants	-14595
tym	-14596
orts	-14597
antly	-14598
arget	-14599
▁joints	-14600
▁½	-14601
▁tubes	-14602
▁Popular	-14603
▁carbohyd	-14604
▁Henderson	-14605
▁Interview	-14606
▁Venezuela	-14607
▁Institution	-14608
▁comfortable	-14609
▁degradation	-14610
elly	-14611
grow	-14612
▁Ster	-14613
access	-14614
▁artic	-14615
▁fluct	-14616
▁culmin	-14617
▁facial	-14618
▁attribute	-14619
▁machinery	-14620
▁achievements	-14621
▁Sie	-14622
story	-14623
▁mail	-14624
ipping	-14625
ordshire	-14626
▁secular	-14627
▁globally	-14628
SE	-14629
▁Derby	-14630
▁towers	-14631
▁afternoon	-14632
▁Mig	-14633
▁drops	-14634
▁Pakistani	-14635
▁designers	-14636
ete	-14637
ullah	-14638
▁riding	-14639
▁wisdom	-14640
▁skating	-14641
▁utilize	-14642
▁reproductive	-14643
▁Classification	-14644
▁Shin	-14645
▁buck	-14646
▁clan	-14647
ensions	-14648
▁comprised	-14649
Ty	-14650
▁Jur	-14651
▁loops	-14652
▁meter	-14653
▁lawyers	-14654
▁LM	-14655
▁Types	-14656
▁bonus	-14657
▁failing	-14658
▁infants	-14659
▁disappear	-14660
▁Mul	-14661
▁Kate	-14662
ampton	-14663
aptive	-14664
▁Canyon	-14665
▁promised	-14666
▁Individual	-14667
▁Eur	-14668
▁Berm	-14669
ocaust	-14670
▁Analy	-14671
▁educators	-14672
▁Ji	-14673
▁wake	-14674
▁polym	-14675
▁enzymes	-14676
▁texture	-14677
▁Nom	-14678
athon	-14679
▁divid	-14680
▁firms	-14681
▁Wilhelm	-14682
▁induces	-14683
▁sectors	-14684
atta	-14685
bank	-14686
▁Laz	-14687
▁intra	-14688
▁pink	-14689
▁Florence	-14690
▁cleaning	-14691
▁withdrew	-14692
▁incidence	-14693
▁nep	-14694
ologic	-14695
▁aggregate	-14696
▁proposals	-14697
▁nineteenth	-14698
HT	-14699
▁mim	-14700
ablish	-14701
▁theor	-14702
▁YouTube	-14703
▁sung	-14704
keeper	-14705
▁fatty	-14706
▁alternatives	-14707
utter	-14708
▁Mang	-14709
▁cone	-14710
▁Chapel	-14711
▁viewing	-14712
▁ma	-14713
▁Mom	-14714
▁numbered	-14715
▁imprisoned	-14716
▁Alpha	-14717
▁onset	-14718
▁banking	-14719
▁blocked	-14720
▁patches	-14721
▁vaccines	-14722
▁athlete	-14723
▁rectang	-14724
▁revival	-14725
▁indicator	-14726
RT	-14727
▁Pam	-14728
enson	-14729
ische	-14730
uning	-14731
▁chapel	-14732
thood	-14733
▁feud	-14734
▁passive	-14735
▁commands	-14736
▁requests	-14737
▁Kin	-14738
assium	-14739
▁Malay	-14740
▁Herald	-14741
▁cancel	-14742
▁cemetery	-14743
▁conquest	-14744
▁websites	-14745
▁hoped	-14746
▁overlap	-14747
(·	-14748
porter	-14749
▁Phase	-14750
example	-14751
▁Inform	-14752
▁adverse	-14753
▁transformations	-14754
▁nickname	-14755
▁mysterious	-14756
▁Hab	-14757
South	-14758
▁Hopkins	-14759
▁civilization	-14760
rn	-14761
Sup	-14762
▁Sey	-14763
▁observer	-14764
▁	-14765
▁CG	-14766
▁selecting	-14767
▁acceptance	-14768
▁Xu	-14769
▁Eye	-14770
▁Break	-14771
alia	-14772
▁lig	-14773
ductor	-14774
▁Henri	-14775
▁accidents	-14776
▁preference	-14777
prof	-14778
▁Kem	-14779
▁Hous	-14780
▁Reed	-14781
▁aging	-14782
▁endors	-14783
pectives	-14784
▁Jupiter	-14785
▁personally	-14786
▁Jen	-14787
▁Gust	-14788
▁Need	-14789
system	-14790
▁horizon	-14791
▁Dw	-14792
▁reass	-14793
▁Prague	-14794
▁Boulevard	-14795
▁Recipients	-14796
▁Gy	-14797
tail	-14798
write	-14799
▁Belfast	-14800
code	-14801
▁Oscar	-14802
pit	-14803
▁kg	-14804
onna	-14805
opened	-14806
▁Avoid	-14807
▁Recently	-14808
▁Engineers	-14809
STM	-14810
▁Beaut	-14811
▁sportspeople	-14812
asian	-14813
stead	-14814
▁Auto	-14815
▁Midd	-14816
▁Stri	-14817
▁blues	-14818
▁entrep	-14819
▁thrown	-14820
▁Overview	-14821
[...]
